<pad>	0
<unk>	0
<s>	0
</s>	0
▁t	-0
▁.	-1
▁i	-2
he	-3
▁a	-4
▁to	-5
▁w	-6
▁s	-7
ou	-8
re	-9
▁m	-10
▁d	-11
▁y	-12
ha	-13
in	-14
▁the	-15
▁you	-16
on	-17
▁b	-18
▁tom	-19
▁c	-20
ve	-21
▁l	-22
▁f	-23
▁?	-24
▁is	-25
ing	-26
an	-27
is	-28
ed	-29
or	-30
en	-31
▁p	-32
er	-33
▁h	-34
ar	-35
▁n	-36
▁he	-37
▁ha	-38
hat	-39
▁g	-40
▁th	-41
as	-42
ll	-43
es	-44
▁o	-45
▁do	-46
at	-47
it	-48
om	-49
ow	-50
▁in	-51
et	-52
▁e	-53
ot	-54
ay	-55
le	-56
▁be	-57
▁an	-58
id	-59
▁we	-60
▁re	-61
us	-62
▁this	-63
▁it	-64
ld	-65
▁that	-66
▁of	-67
ke	-68
▁li	-69
ver	-70
▁st	-71
ic	-72
oo	-73
▁was	-74
▁my	-75
▁,	-76
▁me	-77
▁don	-78
▁have	-79
▁on	-80
▁k	-81
▁what	-82
▁are	-83
▁your	-84
▁r	-85
im	-86
▁for	-87
▁can	-88
ant	-89
gh	-90
ad	-91
▁ne	-92
▁go	-93
ch	-94
st	-95
▁wh	-96
▁mar	-97
▁want	-98
un	-99
▁kn	-100
▁did	-101
se	-102
▁like	-103
al	-104
ome	-105
ght	-106
her	-107
▁not	-108
ent	-109
out	-110
ri	-111
very	-112
ill	-113
ould	-114
ly	-115
▁mary	-116
ir	-117
▁whe	-118
▁know	-119
ter	-120
ook	-121
ac	-122
am	-123
▁j	-124
▁se	-125
all	-126
ion	-127
▁at	-128
▁his	-129
ut	-130
▁she	-131
ust	-132
▁sh	-133
hing	-134
▁wit	-135
▁with	-136
pp	-137
ro	-138
▁there	-139
ain	-140
▁and	-141
one	-142
ore	-143
ink	-144
ur	-145
▁has	-146
▁tr	-147
▁ab	-148
▁any	-149
▁wor	-150
han	-151
▁as	-152
ea	-153
▁no	-154
▁how	-155
▁al	-156
▁here	-157
end	-158
ct	-159
▁ll	-160
il	-161
▁pl	-162
ce	-163
ood	-164
▁does	-165
op	-166
▁they	-167
day	-168
ight	-169
▁where	-170
▁us	-171
▁ve	-172
▁eat	-173
▁tim	-174
ive	-175
▁su	-176
▁him	-177
ake	-178
ren	-179
▁every	-180
fe	-181
▁all	-182
▁who	-183
ong	-184
ry	-185
▁think	-186
up	-187
▁so	-188
▁te	-189
red	-190
▁let	-191
▁than	-192
ble	-193
▁didn	-194
▁time	-195
▁see	-196
ul	-197
ast	-198
▁one	-199
▁need	-200
▁very	-201
▁sa	-202
▁fr	-203
▁about	-204
ase	-205
ost	-206
▁sp	-207
our	-208
ap	-209
▁will	-210
▁look	-211
ear	-212
ge	-213
est	-214
ree	-215
▁car	-216
▁un	-217
▁going	-218
el	-219
oun	-220
▁too	-221
ame	-222
▁get	-223
ind	-224
ally	-225
▁ple	-226
▁out	-227
▁up	-228
ep	-229
ol	-230
▁ex	-231
and	-232
▁book	-233
▁please	-234
ice	-235
ays	-236
thing	-237
art	-238
ate	-239
▁when	-240
▁cl	-241
▁should	-242
dy	-243
▁why	-244
▁her	-245
▁home	-246
▁been	-247
▁doesn	-248
ist	-249
▁con	-250
▁happ	-251
▁just	-252
▁ch	-253
▁di	-254
▁had	-255
ove	-256
▁pro	-257
▁ro	-258
riend	-259
ish	-260
▁work	-261
other	-262
ack	-263
ous	-264
▁ag	-265
▁isn	-266
▁from	-267
▁by	-268
▁stu	-269
▁en	-270
▁dr	-271
qu	-272
▁wat	-273
ss	-274
▁fe	-275
ck	-276
lf	-277
wn	-278
▁hel	-279
ation	-280
▁come	-281
▁read	-282
ite	-283
▁man	-284
▁live	-285
▁wr	-286
▁help	-287
▁more	-288
▁would	-289
um	-290
▁br	-291
▁de	-292
ought	-293
▁good	-294
▁if	-295
▁could	-296
der	-297
th	-298
▁co	-299
▁were	-300
▁still	-301
ass	-302
ouse	-303
▁com	-304
▁never	-305
ak	-306
ie	-307
▁som	-308
▁house	-309
ine	-310
ig	-311
ather	-312
▁play	-313
▁somet	-314
▁sm	-315
▁int	-316
▁af	-317
▁ar	-318
▁bu	-319
▁year	-320
▁am	-321
uch	-322
▁won	-323
▁some	-324
ick	-325
▁le	-326
▁off	-327
▁three	-328
▁!	-329
ait	-330
alk	-331
row	-332
ber	-333
▁bl	-334
▁ca	-335
▁wait	-336
▁jo	-337
▁our	-338
▁anything	-339
bo	-340
pt	-341
hed	-342
▁qu	-343
▁friend	-344
▁something	-345
▁v	-346
urn	-347
▁fl	-348
▁really	-349
ort	-350
▁bo	-351
▁pe	-352
▁new	-353
eak	-354
ild	-355
▁but	-356
▁room	-357
ool	-358
▁now	-359
▁long	-360
▁much	-361
ound	-362
oney	-363
▁may	-364
▁love	-365
▁said	-366
ag	-367
body	-368
▁speak	-369
ers	-370
itt	-371
▁pr	-372
ff	-373
ess	-374
ide	-375
▁got	-376
▁sw	-377
▁back	-378
ft	-379
▁or	-380
▁day	-381
▁give	-382
▁only	-383
leep	-384
▁bus	-385
rench	-386
▁french	-387
pen	-388
▁lot	-389
▁old	-390
▁say	-391
▁tell	-392
▁money	-393
▁happen	-394
ning	-395
▁mad	-396
able	-397
ried	-398
▁bet	-399
▁han	-400
▁lea	-401
oston	-402
▁take	-403
▁boston	-404
os	-405
ose	-406
▁ke	-407
orrow	-408
▁forg	-409
▁many	-410
▁gu	-411
▁sc	-412
ways	-413
▁sch	-414
▁drink	-415
▁always	-416
ard	-417
▁ac	-418
▁ask	-419
▁must	-420
▁today	-421
▁school	-422
▁tw	-423
ople	-424
▁pre	-425
▁yes	-426
▁yet	-427
▁last	-428
▁people	-429
ab	-430
▁name	-431
▁ad	-432
▁fa	-433
▁stud	-434
▁told	-435
▁water	-436
▁father	-437
▁down	-438
▁made	-439
xt	-440
ult	-441
use	-442
▁buy	-443
ure	-444
self	-445
▁app	-446
▁hand	-447
▁right	-448
▁better	-449
mp	-450
ra	-451
ful	-452
terday	-453
▁child	-454
▁yesterday	-455
age	-456
ffe	-457
ity	-458
fore	-459
▁talk	-460
▁again	-461
▁thank	-462
▁under	-463
▁years	-464
ough	-465
▁cat	-466
▁turn	-467
▁before	-468
ang	-469
iss	-470
ount	-471
rest	-472
▁bel	-473
▁feel	-474
▁left	-475
▁bought	-476
em	-477
ue	-478
blem	-479
ving	-480
▁saw	-481
▁leave	-482
▁sleep	-483
▁start	-484
▁problem	-485
ffic	-486
read	-487
▁che	-488
▁make	-489
pl	-490
rive	-491
▁went	-492
gg	-493
ty	-494
▁gr	-495
ther	-496
▁call	-497
▁door	-498
▁open	-499
▁student	-500
ace	-501
ali	-502
▁fi	-503
▁bec	-504
▁rem	-505
▁chan	-506
▁tomorrow	-507
cle	-508
gry	-509
irst	-510
▁fin	-511
▁over	-512
▁stay	-513
▁dog	-514
▁eng	-515
▁rain	-516
▁sure	-517
sw	-518
act	-519
ect	-520
ock	-521
▁dis	-522
▁answ	-523
▁meet	-524
ek	-525
▁pa	-526
ieve	-527
▁har	-528
▁way	-529
▁after	-530
ope	-531
▁la	-532
rent	-533
ting	-534
▁lik	-535
▁two	-536
▁care	-537
▁next	-538
▁happy	-539
▁haven	-540
▁wrong	-541
▁bir	-542
▁mon	-543
▁ever	-544
▁lear	-545
▁plan	-546
▁teac	-547
▁looks	-548
▁believe	-549
ted	-550
▁gl	-551
▁job	-552
▁food	-553
▁week	-554
▁doing	-555
▁everything	-556
ies	-557
apan	-558
ious	-559
ired	-560
▁bot	-561
▁tra	-562
▁engl	-563
▁list	-564
▁swim	-565
▁wasn	-566
▁japan	-567
▁everyone	-568
ng	-569
ach	-570
▁try	-571
▁friends	-572
ven	-573
ated	-574
▁dec	-575
▁ear	-576
▁hun	-577
▁per	-578
▁hard	-579
▁wanted	-580
▁brother	-581
▁english	-582
ese	-583
▁first	-584
▁train	-585
▁world	-586
▁young	-587
▁answer	-588
▁children	-589
te	-590
ich	-591
▁fam	-592
▁gir	-593
▁use	-594
ished	-595
ittle	-596
▁inte	-597
▁late	-598
▁seem	-599
▁other	-600
▁watch	-601
▁little	-602
ark	-603
ian	-604
▁fo	-605
ustr	-606
▁hot	-607
▁hur	-608
▁cont	-609
▁done	-610
▁thing	-611
▁teacher	-612
▁underst	-613
ten	-614
▁imp	-615
▁smo	-616
▁knows	-617
▁study	-618
▁mother	-619
▁2	-620
icy	-621
ife	-622
vor	-623
▁aw	-624
▁po	-625
akes	-626
ctor	-627
▁red	-628
▁ten	-629
ready	-630
▁find	-631
▁austr	-632
▁likes	-633
▁already	-634
▁australi	-635
hes	-636
les	-637
▁mo	-638
▁big	-639
▁bre	-640
ember	-641
ually	-642
▁into	-643
▁life	-644
▁stop	-645
▁nothing	-646
▁australia	-647
ict	-648
▁ho	-649
iver	-650
▁acc	-651
▁hope	-652
▁alone	-653
▁these	-654
▁wants	-655
▁enough	-656
▁interest	-657
▁remember	-658
▁understand	-659
iz	-660
ys	-661
ffee	-662
raid	-663
▁mat	-664
▁died	-665
▁keep	-666
▁part	-667
estion	-668
▁favor	-669
▁afraid	-670
▁coffee	-671
aut	-672
▁ph	-673
▁mor	-674
▁aren	-675
▁both	-676
▁cold	-677
▁pass	-678
▁soon	-679
▁beaut	-680
▁night	-681
▁eating	-682
▁listen	-683
▁morning	-684
pped	-685
▁met	-686
▁put	-687
▁able	-688
▁kill	-689
▁wear	-690
▁well	-691
▁books	-692
▁often	-693
▁arrive	-694
▁station	-695
▁thought	-696
▁question	-697
ary	-698
ily	-699
ner	-700
▁ey	-701
▁sk	-702
ause	-703
king	-704
▁cle	-705
▁cry	-706
▁exp	-707
▁bicy	-708
▁came	-709
▁found	-710
▁learn	-711
▁bicycle	-712
▁happened	-713
og	-714
ond	-715
ory	-716
ught	-717
▁fun	-718
▁lun	-719
▁sur	-720
▁comp	-721
▁show	-722
▁doctor	-723
▁nobody	-724
▁favorite	-725
more	-726
ream	-727
ress	-728
▁att	-729
▁cha	-730
▁mus	-731
▁res	-732
▁tea	-733
▁hair	-734
▁hour	-735
▁birth	-736
▁tried	-737
▁anymore	-738
▁because	-739
ise	-740
▁em	-741
ance	-742
▁din	-743
▁sec	-744
▁busy	-745
▁seen	-746
▁walk	-747
▁traffic	-748
oc	-749
orn	-750
iful	-751
▁bed	-752
▁gre	-753
▁ran	-754
rents	-755
▁lost	-756
▁says	-757
▁took	-758
▁used	-759
▁break	-760
▁eaten	-761
▁heard	-762
▁lives	-763
▁tired	-764
▁forgot	-765
▁hungry	-766
▁letter	-767
▁meeting	-768
▁usually	-769
▁beautiful	-770
ile	-771
ised	-772
▁beg	-773
▁kid	-774
▁min	-775
▁own	-776
▁pen	-777
▁hasn	-778
▁sick	-779
▁them	-780
▁class	-781
▁needs	-782
▁table	-783
▁their	-784
▁dinner	-785
▁looking	-786
▁parents	-787
▁waiting	-788
ci	-789
▁1	-790
vel	-791
▁sl	-792
aper	-793
ited	-794
ross	-795
▁sit	-796
▁even	-797
▁eyes	-798
▁mist	-799
▁asked	-800
▁count	-801
▁which	-802
ank	-803
ans	-804
bab	-805
get	-806
orm	-807
▁id	-808
angu	-809
ment	-810
▁air	-811
▁bad	-812
▁mil	-813
▁pol	-814
bably	-815
▁best	-816
▁tall	-817
▁wife	-818
▁langu	-819
▁lunch	-820
▁music	-821
▁change	-822
▁without	-823
▁probably	-824
▁everybody	-825
mm	-826
ail	-827
ert	-828
▁si	-829
fect	-830
llow	-831
room	-832
▁mov	-833
▁sun	-834
ision	-835
▁away	-836
▁cook	-837
▁hear	-838
▁hurt	-839
▁forget	-840
▁himself	-841
▁3	-842
ave	-843
ign	-844
ont	-845
▁sn	-846
ater	-847
irty	-848
osed	-849
▁ago	-850
▁box	-851
▁boy	-852
▁sat	-853
▁sho	-854
▁fish	-855
▁kind	-856
▁milk	-857
▁pain	-858
▁true	-859
▁hands	-860
▁minut	-861
▁couldn	-862
▁birthday	-863
▁finished	-864
ax	-865
be	-866
ew	-867
ath	-868
ced	-869
ull	-870
▁ok	-871
rect	-872
ident	-873
▁miss	-874
▁pers	-875
▁early	-876
▁light	-877
▁might	-878
▁phone	-879
▁import	-880
▁another	-881
app	-882
ons	-883
unk	-884
▁cr	-885
ince	-886
▁adv	-887
▁far	-888
▁str	-889
▁same	-890
▁wind	-891
▁wine	-892
▁word	-893
▁front	-894
▁river	-895
▁seems	-896
▁those	-897
▁trust	-898
▁write	-899
▁disapp	-900
▁playing	-901
▁started	-902
io	-903
ged	-904
umb	-905
ared	-906
ence	-907
fast	-908
orry	-909
used	-910
▁cor	-911
ister	-912
iting	-913
▁city	-914
▁each	-915
▁fast	-916
▁mind	-917
▁pict	-918
▁sing	-919
▁mount	-920
▁party	-921
▁sorry	-922
fficult	-923
▁thanks	-924
▁arrived	-925
▁married	-926
▁picture	-927
▁breakfast	-928
▁difficult	-929
de	-930
irt	-931
ret	-932
▁tv	-933
▁dri	-934
▁ins	-935
▁lau	-936
▁run	-937
ustom	-938
▁conf	-939
▁gave	-940
▁head	-941
▁knew	-942
▁pret	-943
▁tree	-944
▁angry	-945
▁compl	-946
▁drunk	-947
▁place	-948
▁ready	-949
▁small	-950
▁stand	-951
▁family	-952
▁sister	-953
▁getting	-954
▁reading	-955
▁smoking	-956
00	-957
by	-958
pr	-959
ell	-960
ger	-961
ied	-962
uth	-963
▁hi	-964
▁ra	-965
alth	-966
port	-967
ying	-968
▁bro	-969
▁des	-970
▁ent	-971
▁few	-972
▁hum	-973
▁pay	-974
▁sha	-975
ocked	-976
▁flow	-977
▁girl	-978
▁mean	-979
▁park	-980
▁apple	-981
▁girlf	-982
▁glass	-983
▁hours	-984
▁month	-985
▁follow	-986
▁killed	-987
▁person	-988
▁things	-989
▁perfect	-990
▁someone	-991
▁japanese	-992
▁yourself	-993
▁girlfriend	-994
av	-995
cto	-996
ork	-997
uck	-998
ible	-999
mmer	-1000
reet	-1001
▁col	-1002
▁cut	-1003
▁eas	-1004
▁rad	-1005
▁son	-1006
▁born	-1007
▁days	-1008
▁hate	-1009
▁most	-1010
▁near	-1011
▁octo	-1012
▁snow	-1013
▁wish	-1014
▁being	-1015
▁clean	-1016
▁close	-1017
▁drive	-1018
▁grand	-1019
▁lived	-1020
▁while	-1021
▁health	-1022
▁street	-1023
▁wonder	-1024
▁correct	-1025
▁minutes	-1026
▁october	-1027
▁shouldn	-1028
pe	-1029
ars	-1030
ron	-1031
▁ap	-1032
▁da	-1033
ding	-1034
most	-1035
▁hat	-1036
▁lar	-1037
▁ret	-1038
▁war	-1039
▁cats	-1040
▁empt	-1041
▁fire	-1042
▁kiss	-1043
▁mine	-1044
▁prom	-1045
▁rice	-1046
▁agree	-1047
▁diffe	-1048
▁eight	-1049
▁radio	-1050
▁white	-1051
▁almost	-1052
▁anyone	-1053
▁closed	-1054
▁summer	-1055
▁talking	-1056
▁working	-1057
ps	-1058
ire	-1059
led	-1060
oor	-1061
▁20	-1062
eric	-1063
pens	-1064
sent	-1065
▁die	-1066
▁hor	-1067
▁ser	-1068
▁doll	-1069
▁fell	-1070
▁idea	-1071
▁kept	-1072
▁once	-1073
▁tele	-1074
gether	-1075
ilding	-1076
▁bring	-1077
▁canad	-1078
▁empty	-1079
▁inter	-1080
▁maybe	-1081
▁paper	-1082
▁since	-1083
▁truth	-1084
▁whose	-1085
▁americ	-1086
▁around	-1087
▁called	-1088
▁caught	-1089
▁crying	-1090
▁matter	-1091
▁monday	-1092
▁office	-1093
▁accident	-1094
▁mountain	-1095
▁together	-1096
zy	-1097
als	-1098
elt	-1099
ier	-1100
lse	-1101
man	-1102
nis	-1103
oon	-1104
oup	-1105
ical	-1106
ided	-1107
ions	-1108
ming	-1109
▁add	-1110
▁exc	-1111
▁inv	-1112
▁sus	-1113
▁vis	-1114
▁win	-1115
ither	-1116
▁else	-1117
▁fall	-1118
▁gone	-1119
▁move	-1120
▁rest	-1121
▁later	-1122
▁movie	-1123
▁novel	-1124
pensive	-1125
▁asleep	-1126
▁expect	-1127
▁looked	-1128
▁police	-1129
▁tennis	-1130
▁trying	-1131
▁window	-1132
▁building	-1133
▁students	-1134
▁important	-1135
br	-1136
ds	-1137
ely	-1138
itc	-1139
ize	-1140
ved	-1141
▁pu	-1142
ason	-1143
cept	-1144
ense	-1145
ison	-1146
ital	-1147
oice	-1148
▁ate	-1149
▁bag	-1150
▁cam	-1151
▁fix	-1152
▁sal	-1153
▁six	-1154
▁swe	-1155
▁tax	-1156
ently	-1157
erous	-1158
ition	-1159
▁blue	-1160
▁expl	-1161
▁felt	-1162
▁heav	-1163
▁news	-1164
▁sugg	-1165
▁blood	-1166
▁chair	-1167
▁color	-1168
▁floor	-1169
▁hotel	-1170
▁surpr	-1171
▁times	-1172
▁works	-1173
▁borrow	-1174
▁longer	-1175
▁secret	-1176
▁changed	-1177
▁writing	-1178
▁interested	-1179
▁interesting	-1180
cc	-1181
if	-1182
jo	-1183
ces	-1184
oud	-1185
ball	-1186
land	-1187
▁bit	-1188
▁cap	-1189
▁del	-1190
▁ice	-1191
▁ill	-1192
▁rec	-1193
▁unt	-1194
▁cert	-1195
▁chin	-1196
▁comm	-1197
▁dang	-1198
▁face	-1199
▁five	-1200
▁free	-1201
▁glad	-1202
▁gold	-1203
▁sign	-1204
▁wall	-1205
icious	-1206
▁begin	-1207
▁cross	-1208
▁loves	-1209
▁shoes	-1210
▁teach	-1211
▁worry	-1212
▁custom	-1213
▁driver	-1214
▁famous	-1215
▁finish	-1216
▁wouldn	-1217
▁canadian	-1218
▁language	-1219
▁swimming	-1220
▁different	-1221
▁expensive	-1222
gn	-1223
ip	-1224
▁:	-1225
cus	-1226
ken	-1227
oin	-1228
ugg	-1229
▁30	-1230
ator	-1231
here	-1232
iled	-1233
olog	-1234
road	-1235
uter	-1236
▁act	-1237
▁adm	-1238
▁als	-1239
▁ele	-1240
▁eve	-1241
▁hit	-1242
▁law	-1243
▁men	-1244
▁ref	-1245
▁sto	-1246
▁wom	-1247
itten	-1248
▁bank	-1249
▁lose	-1250
▁outs	-1251
▁road	-1252
▁sell	-1253
▁sent	-1254
▁clock	-1255
▁great	-1256
▁sound	-1257
▁store	-1258
▁until	-1259
▁return	-1260
▁scared	-1261
▁thirty	-1262
▁mistake	-1263
▁suggest	-1264
▁weather	-1265
▁younger	-1266
▁sleeping	-1267
▁disappoin	-1268
ia	-1269
bby	-1270
een	-1271
ike	-1272
ves	-1273
ages	-1274
ange	-1275
ates	-1276
idge	-1277
ient	-1278
ries	-1279
ured	-1280
work	-1281
▁ast	-1282
▁cup	-1283
▁ind	-1284
▁lie	-1285
▁mom	-1286
▁num	-1287
▁sol	-1288
actly	-1289
aking	-1290
ative	-1291
icked	-1292
iness	-1293
night	-1294
ouble	-1295
▁also	-1296
▁clot	-1297
▁dark	-1298
▁easy	-1299
▁enjo	-1300
▁high	-1301
▁song	-1302
▁supp	-1303
ention	-1304
▁alive	-1305
▁allow	-1306
▁bread	-1307
▁dream	-1308
▁fault	-1309
▁hobby	-1310
▁hurry	-1311
▁makes	-1312
▁older	-1313
▁shirt	-1314
▁smoke	-1315
▁advice	-1316
▁aftern	-1317
▁apples	-1318
▁either	-1319
▁having	-1320
▁number	-1321
▁pretty	-1322
▁reason	-1323
▁turned	-1324
▁country	-1325
▁exactly	-1326
▁feeling	-1327
▁computer	-1328
▁decision	-1329
▁learning	-1330
▁speaking	-1331
▁listening	-1332
lo	-1333
air	-1334
era	-1335
noc	-1336
per	-1337
ses	-1338
▁gi	-1339
itar	-1340
ored	-1341
▁ass	-1342
▁dad	-1343
▁egg	-1344
▁end	-1345
▁inf	-1346
▁jam	-1347
▁rel	-1348
▁rep	-1349
▁tri	-1350
eared	-1351
▁beer	-1352
▁fore	-1353
▁hist	-1354
▁mill	-1355
▁nice	-1356
▁past	-1357
▁shop	-1358
▁team	-1359
nocent	-1360
vision	-1361
▁black	-1362
▁cheap	-1363
▁guess	-1364
▁heavy	-1365
▁laugh	-1366
▁lying	-1367
▁plane	-1368
▁spend	-1369
▁story	-1370
▁across	-1371
▁become	-1372
▁excuse	-1373
▁guitar	-1374
▁passed	-1375
▁second	-1376
▁univer	-1377
▁america	-1378
▁careful	-1379
▁certain	-1380
▁outside	-1381
▁wearing	-1382
▁homework	-1383
▁innocent	-1384
▁painting	-1385
▁afternoon	-1386
▁dangerous	-1387
▁questions	-1388
▁television	-1389
bl	-1390
ib	-1391
lc	-1392
cil	-1393
erg	-1394
gar	-1395
ilt	-1396
its	-1397
omy	-1398
ots	-1399
ule	-1400
way	-1401
▁av	-1402
▁ju	-1403
▁sy	-1404
arth	-1405
ered	-1406
full	-1407
ilty	-1408
less	-1409
upid	-1410
▁bab	-1411
▁fly	-1412
▁reg	-1413
▁rul	-1414
▁sil	-1415
fully	-1416
where	-1417
▁anim	-1418
▁boyf	-1419
▁char	-1420
▁cons	-1421
▁dogs	-1422
▁goes	-1423
▁guys	-1424
▁hold	-1425
▁luck	-1426
▁shut	-1427
▁susp	-1428
▁taxi	-1429
▁wash	-1430
▁welc	-1431
iction	-1432
itting	-1433
▁began	-1434
▁earth	-1435
▁trans	-1436
▁uncle	-1437
▁visit	-1438
▁abroad	-1439
▁apolog	-1440
▁camera	-1441
▁contin	-1442
▁guilty	-1443
▁myself	-1444
▁needed	-1445
▁opened	-1446
▁pencil	-1447
▁stayed	-1448
▁stupid	-1449
▁clothes	-1450
▁decided	-1451
▁forgive	-1452
▁kidding	-1453
▁tonight	-1454
▁trouble	-1455
▁mistakes	-1456
▁studying	-1457
▁boyfriend	-1458
▁languages	-1459
du	-1460
ug	-1461
are	-1462
ash	-1463
bed	-1464
iet	-1465
int	-1466
osp	-1467
ued	-1468
uro	-1469
▁op	-1470
cuss	-1471
fort	-1472
hind	-1473
ilet	-1474
iter	-1475
ived	-1476
olen	-1477
outh	-1478
▁cra	-1479
▁flu	-1480
▁gen	-1481
▁ign	-1482
▁mem	-1483
▁pie	-1484
▁thr	-1485
astic	-1486
ately	-1487
ating	-1488
urope	-1489
▁baby	-1490
▁boss	-1491
▁desk	-1492
▁exam	-1493
▁flag	-1494
▁lied	-1495
▁poss	-1496
▁prog	-1497
▁rece	-1498
▁resp	-1499
▁rich	-1500
▁slow	-1501
▁then	-1502
father	-1503
ishing	-1504
▁blind	-1505
▁chess	-1506
▁clear	-1507
▁dirty	-1508
▁knife	-1509
▁order	-1510
▁plant	-1511
▁quite	-1512
▁rules	-1513
▁short	-1514
▁touch	-1515
▁behind	-1516
▁cheese	-1517
▁europe	-1518
▁inform	-1519
▁locked	-1520
▁played	-1521
▁saying	-1522
▁speaks	-1523
▁stolen	-1524
▁strong	-1525
▁taller	-1526
▁thinks	-1527
▁toilet	-1528
▁airport	-1529
▁anybody	-1530
▁brought	-1531
▁complet	-1532
▁contact	-1533
▁dollars	-1534
▁explain	-1535
▁flowers	-1536
▁healthy	-1537
▁history	-1538
▁present	-1539
▁raining	-1540
▁serious	-1541
▁through	-1542
▁welcome	-1543
▁confused	-1544
▁drinking	-1545
▁problems	-1546
▁watching	-1547
▁grandfather	-1548
dd	-1549
ee	-1550
hn	-1551
ny	-1552
uc	-1553
za	-1554
▁z	-1555
ane	-1556
any	-1557
ili	-1558
ned	-1559
ors	-1560
ram	-1561
rew	-1562
ump	-1563
usb	-1564
▁00	-1565
aliz	-1566
ames	-1567
ches	-1568
enty	-1569
iano	-1570
ific	-1571
imes	-1572
ject	-1573
lept	-1574
ocol	-1575
rell	-1576
ular	-1577
▁art	-1578
▁ban	-1579
▁dep	-1580
▁gar	-1581
▁hid	-1582
▁med	-1583
▁sad	-1584
▁spo	-1585
▁ter	-1586
▁tre	-1587
▁umb	-1588
ugged	-1589
▁cars	-1590
▁coll	-1591
▁conc	-1592
▁conv	-1593
▁coup	-1594
▁cour	-1595
▁dest	-1596
▁fine	-1597
▁foot	-1598
▁gets	-1599
▁husb	-1600
▁jack	-1601
▁john	-1602
▁lake	-1603
▁meat	-1604
▁opin	-1605
▁paid	-1606
▁quit	-1607
▁real	-1608
▁salt	-1609
▁star	-1610
▁test	-1611
ations	-1612
ronomy	-1613
▁broke	-1614
▁death	-1615
▁enjoy	-1616
▁fight	-1617
▁newsp	-1618
▁piano	-1619
▁quiet	-1620
▁slept	-1621
▁sugar	-1622
▁accept	-1623
▁chocol	-1624
▁coming	-1625
▁island	-1626
▁kissed	-1627
▁months	-1628
▁prison	-1629
▁realiz	-1630
▁transl	-1631
▁chinese	-1632
▁customs	-1633
▁diction	-1634
▁discuss	-1635
▁helping	-1636
▁husband	-1637
▁stopped	-1638
▁telling	-1639
▁umbrell	-1640
▁univers	-1641
▁astronomy	-1642
▁attention	-1643
▁sometimes	-1644
▁surprised	-1645
▁completely	-1646
▁dictionary	-1647
▁information	-1648
▁disappointed	-1649
az	-1650
ky	-1651
cce	-1652
ton	-1653
▁ed	-1654
▁es	-1655
▁mt	-1656
▁vi	-1657
airs	-1658
ased	-1659
ched	-1660
ends	-1661
ever	-1662
gest	-1663
ghed	-1664
haps	-1665
ices	-1666
iday	-1667
izza	-1668
▁dem	-1669
▁pop	-1670
▁pur	-1671
▁set	-1672
▁sky	-1673
▁sub	-1674
▁vac	-1675
▁wet	-1676
cceed	-1677
dered	-1678
ended	-1679
ering	-1680
icket	-1681
useum	-1682
veral	-1683
▁bath	-1684
▁bike	-1685
▁bott	-1686
▁cake	-1687
▁cost	-1688
▁eats	-1689
▁four	-1690
▁hide	-1691
▁math	-1692
▁shot	-1693
▁situ	-1694
▁such	-1695
▁town	-1696
▁trip	-1697
▁wake	-1698
ughter	-1699
▁check	-1700
▁const	-1701
▁crazy	-1702
▁exper	-1703
▁funny	-1704
▁horse	-1705
▁large	-1706
▁least	-1707
▁liked	-1708
▁offic	-1709
▁pizza	-1710
▁press	-1711
▁seven	-1712
▁veget	-1713
▁woman	-1714
▁yours	-1715
▁broken	-1716
▁butter	-1717
▁choice	-1718
▁movies	-1719
▁museum	-1720
▁result	-1721
▁scream	-1722
▁sounds	-1723
▁thirst	-1724
▁ticket	-1725
▁travel	-1726
▁address	-1727
▁fishing	-1728
▁glasses	-1729
▁invited	-1730
▁laughed	-1731
▁leaving	-1732
▁opinion	-1733
▁perhaps	-1734
▁program	-1735
▁several	-1736
▁succeed	-1737
▁business	-1738
▁daughter	-1739
▁standing	-1740
▁umbrella	-1741
▁chocolate	-1742
▁university	-1743
13	-1744
co	-1745
anc	-1746
aur	-1747
hen	-1748
ial	-1749
ics	-1750
ird	-1751
kyo	-1752
ord	-1753
ote	-1754
oth	-1755
owl	-1756
ric	-1757
rol	-1758
▁19	-1759
▁fu	-1760
ache	-1761
ains	-1762
ccer	-1763
dred	-1764
elon	-1765
ibil	-1766
ings	-1767
lier	-1768
reci	-1769
▁arm	-1770
▁dro	-1771
▁dur	-1772
▁hol	-1773
▁inj	-1774
▁key	-1775
▁nor	-1776
▁pat	-1777
▁raw	-1778
▁rid	-1779
brary	-1780
ience	-1781
ipped	-1782
▁2013	-1783
▁bear	-1784
▁bowl	-1785
▁dead	-1786
▁deep	-1787
▁dist	-1788
▁eggs	-1789
▁grad	-1790
▁grow	-1791
▁half	-1792
▁hang	-1793
▁hosp	-1794
▁inst	-1795
▁iron	-1796
▁kids	-1797
▁mess	-1798
▁seat	-1799
▁side	-1800
▁sixt	-1801
▁skin	-1802
▁sold	-1803
▁warm	-1804
ission	-1805
▁above	-1806
▁along	-1807
▁banan	-1808
▁birds	-1809
▁cream	-1810
▁dance	-1811
▁green	-1812
▁human	-1813
▁jacks	-1814
▁mouth	-1815
▁proud	-1816
▁sport	-1817
▁tokyo	-1818
▁weeks	-1819
▁became	-1820
▁bridge	-1821
▁button	-1822
▁couple	-1823
▁during	-1824
▁garage	-1825
▁hugged	-1826
▁inside	-1827
▁joking	-1828
▁living	-1829
▁seemed	-1830
▁soccer	-1831
▁sunday	-1832
▁waited	-1833
▁against	-1834
▁appreci	-1835
▁company	-1836
▁earlier	-1837
▁hundred	-1838
▁library	-1839
▁million	-1840
▁thirsty	-1841
▁washing	-1842
▁whether	-1843
▁bathroom	-1844
▁complain	-1845
▁followed	-1846
▁hospital	-1847
▁promised	-1848
▁received	-1849
▁vacation	-1850
▁carefully	-1851
▁delicious	-1852
▁situation	-1853
▁disappeared	-1854
iv	-1855
ji	-1856
ph	-1857
che	-1858
cut	-1859
ham	-1860
iew	-1861
ime	-1862
kes	-1863
ket	-1864
mat	-1865
rap	-1866
sel	-1867
ush	-1868
▁18	-1869
▁im	-1870
▁ma	-1871
aken	-1872
eech	-1873
ones	-1874
oves	-1875
ower	-1876
ters	-1877
ward	-1878
▁avo	-1879
▁esc	-1880
▁guy	-1881
▁hig	-1882
▁hon	-1883
▁leg	-1884
▁lic	-1885
▁par	-1886
▁sim	-1887
hache	-1888
hamed	-1889
itted	-1890
melon	-1891
rious	-1892
ument	-1893
ution	-1894
▁agre	-1895
▁ball	-1896
▁base	-1897
▁bird	-1898
▁burn	-1899
▁cond	-1900
▁cred	-1901
▁decl	-1902
▁fact	-1903
▁fill	-1904
▁form	-1905
▁full	-1906
▁game	-1907
▁gate	-1908
▁golf	-1909
▁hall	-1910
▁join	-1911
▁joke	-1912
▁kitc	-1913
▁lazy	-1914
▁lend	-1915
▁phot	-1916
▁publ	-1917
▁quar	-1918
▁safe	-1919
▁save	-1920
▁tast	-1921
▁temp	-1922
▁vill	-1923
▁wood	-1924
aurant	-1925
overed	-1926
▁beach	-1927
▁comes	-1928
▁demol	-1929
▁dress	-1930
▁flour	-1931
▁hurts	-1932
▁juice	-1933
▁lucky	-1934
▁point	-1935
▁pract	-1936
▁price	-1937
▁smart	-1938
▁smile	-1939
▁sweet	-1940
▁voice	-1941
▁waste	-1942
▁worth	-1943
▁wrote	-1944
artment	-1945
osition	-1946
▁allerg	-1947
▁bitten	-1948
▁gloves	-1949
▁honest	-1950
▁member	-1951
▁player	-1952
▁rather	-1953
▁remind	-1954
▁speech	-1955
▁united	-1956
fortable	-1957
▁allowed	-1958
▁ashamed	-1959
▁capital	-1960
▁cooking	-1961
▁evening	-1962
▁everest	-1963
▁foreign	-1964
▁injured	-1965
▁jackson	-1966
▁kitchen	-1967
▁largest	-1968
▁license	-1969
▁plastic	-1970
▁promise	-1971
▁sitting	-1972
▁studied	-1973
▁village	-1974
▁weekend	-1975
▁worried	-1976
▁returned	-1977
▁somebody	-1978
▁apologize	-1979
▁classroom	-1980
▁newspaper	-1981
▁demolished	-1982
▁restaurant	-1983
▁suspicious	-1984
▁watermelon	-1985
aw	-1986
bt	-1987
hi	-1988
ux	-1989
▁5	-1990
▁8	-1991
amp	-1992
cer	-1993
ead	-1994
erv	-1995
idd	-1996
ple	-1997
set	-1998
ual	-1999
zen	-2000
▁cu	-2001
▁ec	-2002
fing	-2003
ized	-2004
ldom	-2005
lled	-2006
olin	-2007
teen	-2008
ween	-2009
▁000	-2010
▁abs	-2011
▁age	-2012
▁bor	-2013
▁cla	-2014
▁doc	-2015
▁dut	-2016
▁fut	-2017
▁god	-2018
▁idi	-2019
▁its	-2020
▁nat	-2021
▁oce	-2022
▁opt	-2023
▁pac	-2024
▁rom	-2025
▁sea	-2026
▁toy	-2027
aired	-2028
antic	-2029
aster	-2030
enced	-2031
illow	-2032
ities	-2033
ograp	-2034
ormal	-2035
pping	-2036
riger	-2037
right	-2038
ushed	-2039
vious	-2040
▁blow	-2041
▁clim	-2042
▁cult	-2043
▁date	-2044
▁ears	-2045
▁educ	-2046
▁fool	-2047
▁fuji	-2048
▁gift	-2049
▁grap	-2050
▁held	-2051
▁jump	-2052
▁king	-2053
▁land	-2054
▁lead	-2055
▁less	-2056
▁line	-2057
▁lock	-2058
▁moon	-2059
▁perm	-2060
▁prot	-2061
▁rope	-2062
▁self	-2063
▁send	-2064
▁stom	-2065
▁stra	-2066
ainted	-2067
mother	-2068
ousand	-2069
selves	-2070
▁built	-2071
▁catch	-2072
▁dying	-2073
▁escap	-2074
▁fired	-2075
▁given	-2076
▁hates	-2077
▁honey	-2078
▁known	-2079
▁moved	-2080
▁plays	-2081
▁roses	-2082
▁sched	-2083
▁shout	-2084
▁stick	-2085
▁stood	-2086
▁terri	-2087
▁throw	-2088
▁words	-2089
ibility	-2090
▁absent	-2091
▁attend	-2092
▁belong	-2093
▁bigger	-2094
▁caused	-2095
▁decide	-2096
▁drinks	-2097
▁except	-2098
▁failed	-2099
▁flower	-2100
▁forced	-2101
▁future	-2102
▁giving	-2103
▁humili	-2104
▁kicked	-2105
▁making	-2106
▁missed	-2107
▁moment	-2108
▁normal	-2109
▁orange	-2110
▁pillow	-2111
▁planet	-2112
▁prices	-2113
▁public	-2114
▁seldom	-2115
▁showed	-2116
▁sleepy	-2117
▁stairs	-2118
▁taking	-2119
▁though	-2120
▁violin	-2121
▁walked	-2122
▁worked	-2123
▁animals	-2124
▁between	-2125
▁curious	-2126
▁finally	-2127
▁letters	-2128
▁planted	-2129
▁respons	-2130
▁singing	-2131
▁slipped	-2132
▁strange	-2133
▁teaches	-2134
rigerator	-2135
▁accustom	-2136
▁allergic	-2137
▁answered	-2138
▁crossing	-2139
▁document	-2140
▁football	-2141
▁recently	-2142
▁repaired	-2143
▁teaching	-2144
▁thinking	-2145
▁thousand	-2146
▁whatever	-2147
▁classical	-2148
▁condition	-2149
▁happening	-2150
▁suggested	-2151
▁appreciate	-2152
▁comfortable	-2153
▁grandmother	-2154
▁understands	-2155
▁refrigerator	-2156
bs	-2157
fa	-2158
nt	-2159
od	-2160
wr	-2161
▁4	-2162
▁6	-2163
bey	-2164
eaf	-2165
edi	-2166
ege	-2167
eth	-2168
fer	-2169
ghb	-2170
ief	-2171
isf	-2172
llo	-2173
own	-2174
sit	-2175
uit	-2176
une	-2177
ute	-2178
xic	-2179
▁ce	-2180
▁gh	-2181
▁ta	-2182
▁ty	-2183
aced	-2184
aces	-2185
ails	-2186
athe	-2187
book	-2188
duce	-2189
hant	-2190
hest	-2191
iced	-2192
ider	-2193
ighb	-2194
ises	-2195
load	-2196
pose	-2197
pper	-2198
rist	-2199
tery	-2200
view	-2201
ycle	-2202
▁atm	-2203
▁cal	-2204
▁cop	-2205
▁ext	-2206
▁eye	-2207
▁fil	-2208
▁fre	-2209
▁gas	-2210
▁imm	-2211
▁inc	-2212
▁lin	-2213
▁map	-2214
▁mur	-2215
▁nea	-2216
▁pun	-2217
▁shy	-2218
▁ski	-2219
▁tow	-2220
▁val	-2221
▁wed	-2222
▁yen	-2223
▁zoo	-2224
ained	-2225
apped	-2226
astle	-2227
ccess	-2228
ction	-2229
icide	-2230
icken	-2231
iling	-2232
ising	-2233
ondon	-2234
phant	-2235
urday	-2236
▁arri	-2237
▁bill	-2238
▁bite	-2239
▁cann	-2240
▁choo	-2241
▁deaf	-2242
▁deer	-2243
▁draw	-2244
▁dumb	-2245
▁duty	-2246
▁fold	-2247
▁imag	-2248
▁lots	-2249
▁main	-2250
▁nine	-2251
▁nose	-2252
▁obey	-2253
▁peel	-2254
▁ring	-2255
▁rock	-2256
▁rule	-2257
▁sand	-2258
▁shar	-2259
▁soci	-2260
▁sofa	-2261
▁suff	-2262
▁thir	-2263
▁tour	-2264
▁worn	-2265
roduce	-2266
▁airpl	-2267
▁bored	-2268
▁cards	-2269
▁dozen	-2270
▁drank	-2271
▁elect	-2272
▁fixed	-2273
▁fruit	-2274
▁gener	-2275
▁ghost	-2276
▁heart	-2277
▁hello	-2278
▁jokes	-2279
▁keeps	-2280
▁medic	-2281
▁mexic	-2282
▁noise	-2283
▁ocean	-2284
▁orang	-2285
▁quick	-2286
▁raise	-2287
▁round	-2288
▁sense	-2289
▁sight	-2290
▁skirt	-2291
▁smell	-2292
▁suitc	-2293
▁sushi	-2294
▁taken	-2295
▁thick	-2296
▁weird	-2297
▁women	-2298
ighbors	-2299
unately	-2300
writing	-2301
▁agreed	-2302
▁animal	-2303
▁beauty	-2304
▁blames	-2305
▁boring	-2306
▁cancer	-2307
▁castle	-2308
▁course	-2309
▁destin	-2310
▁easily	-2311
▁grapes	-2312
▁handed	-2313
▁helped	-2314
▁horses	-2315
▁immedi	-2316
▁intern	-2317
▁leaves	-2318
▁london	-2319
▁minute	-2320
▁picked	-2321
▁poison	-2322
▁rained	-2323
▁raised	-2324
▁silver	-2325
▁slowly	-2326
▁smiled	-2327
▁starts	-2328
▁supper	-2329
▁teleph	-2330
▁twenty	-2331
▁weight	-2332
▁advised	-2333
▁bananas	-2334
▁bedroom	-2335
▁chicken	-2336
▁college	-2337
▁concert	-2338
▁control	-2339
▁driving	-2340
▁factory	-2341
▁highest	-2342
▁holiday	-2343
▁ignored	-2344
▁learned	-2345
▁nearest	-2346
▁pacific	-2347
▁painted	-2348
▁protect	-2349
▁success	-2350
▁suicide	-2351
▁surfing	-2352
▁sweater	-2353
▁tallest	-2354
▁visited	-2355
▁walking	-2356
▁written	-2357
▁actually	-2358
▁baseball	-2359
▁borrowed	-2360
▁convince	-2361
▁elephant	-2362
▁fluently	-2363
▁pictures	-2364
▁possible	-2365
▁saturday	-2366
▁sentence	-2367
▁shopping	-2368
▁starting	-2369
▁thirteen	-2370
▁canadians	-2371
▁continued	-2372
▁interview	-2373
▁introduce	-2374
▁neighbors	-2375
▁accustomed	-2376
▁permission	-2377
▁complaining	-2378
▁handwriting	-2379
▁immediately	-2380
bb	-2381
hy	-2382
mb	-2383
ru	-2384
ud	-2385
xy	-2386
ade	-2387
coh	-2388
cri	-2389
eds	-2390
ety	-2391
ito	-2392
itz	-2393
jor	-2394
ker	-2395
key	-2396
mas	-2397
mon	-2398
omb	-2399
omp	-2400
oss	-2401
par	-2402
pet	-2403
rat	-2404
uff	-2405
ume	-2406
ury	-2407
▁ba	-2408
▁er	-2409
▁ob	-2410
▁wo	-2411
▁ye	-2412
aged	-2413
ayed	-2414
ened	-2415
ford	-2416
ideo	-2417
ilar	-2418
inal	-2419
ires	-2420
llig	-2421
mark	-2422
mplo	-2423
nect	-2424
osqu	-2425
oubt	-2426
ract	-2427
rots	-2428
stem	-2429
vice	-2430
vide	-2431
▁ann	-2432
▁arg	-2433
▁atl	-2434
▁aut	-2435
▁bar	-2436
▁ger	-2437
▁ink	-2438
▁lay	-2439
▁nar	-2440
▁pri	-2441
▁rab	-2442
▁rat	-2443
▁tie	-2444
▁tot	-2445
▁wol	-2446
ables	-2447
alist	-2448
amond	-2449
arden	-2450
arian	-2451
bborn	-2452
cient	-2453
cohol	-2454
ences	-2455
hemat	-2456
itzer	-2457
ocket	-2458
ouses	-2459
rence	-2460
store	-2461
▁acqu	-2462
▁buck	-2463
▁cell	-2464
▁coat	-2465
▁coin	-2466
▁dare	-2467
▁econ	-2468
▁enem	-2469
▁fort	-2470
▁hole	-2471
▁inse	-2472
▁keys	-2473
▁legs	-2474
▁loud	-2475
▁mach	-2476
▁nood	-2477
▁okay	-2478
▁pale	-2479
▁pity	-2480
▁pond	-2481
▁poor	-2482
▁pres	-2483
▁pron	-2484
▁prop	-2485
▁rail	-2486
▁rely	-2487
▁rent	-2488
▁resc	-2489
▁ride	-2490
▁rome	-2491
▁scar	-2492
▁ship	-2493
▁size	-2494
▁soup	-2495
▁suit	-2496
▁surv	-2497
▁trap	-2498
isfied	-2499
rested	-2500
▁absol	-2501
▁actor	-2502
▁appro	-2503
▁avail	-2504
▁awake	-2505
▁beard	-2506
▁blame	-2507
▁blank	-2508
▁china	-2509
▁deser	-2510
▁doubt	-2511
▁emplo	-2512
▁gives	-2513
▁idiot	-2514
▁impro	-2515
▁major	-2516
▁means	-2517
▁mosqu	-2518
▁peace	-2519
▁piece	-2520
▁polit	-2521
▁produ	-2522
▁punct	-2523
▁rains	-2524
▁saved	-2525
▁solve	-2526
▁stars	-2527
▁stole	-2528
▁straw	-2529
▁talks	-2530
▁taste	-2531
▁teeth	-2532
▁thief	-2533
▁threw	-2534
▁trees	-2535
▁twice	-2536
▁upset	-2537
▁video	-2538
▁wears	-2539
▁worst	-2540
achache	-2541
iterate	-2542
lligent	-2543
ristmas	-2544
▁assist	-2545
▁attack	-2546
▁begins	-2547
▁bottle	-2548
▁cannot	-2549
▁carpet	-2550
▁chance	-2551
▁charge	-2552
▁common	-2553
▁credit	-2554
▁destro	-2555
▁drawer	-2556
▁engine	-2557
▁entire	-2558
▁experi	-2559
▁filled	-2560
▁fridge	-2561
▁garden	-2562
▁german	-2563
▁ghosts	-2564
▁hardly	-2565
▁hiding	-2566
▁houses	-2567
▁insane	-2568
▁lasted	-2569
▁lights	-2570
▁market	-2571
▁novels	-2572
▁pieces	-2573
▁plenty	-2574
▁pocket	-2575
▁prefer	-2576
▁report	-2577
▁romans	-2578
▁seeing	-2579
▁shower	-2580
▁spoken	-2581
▁sports	-2582
▁states	-2583
▁system	-2584
▁taught	-2585
▁temper	-2586
▁wallet	-2587
▁winter	-2588
▁yellow	-2589
hematics	-2590
▁alcohol	-2591
▁blowing	-2592
▁capable	-2593
▁carrots	-2594
▁climbed	-2595
▁collect	-2596
▁comment	-2597
▁connect	-2598
▁covered	-2599
▁diamond	-2600
▁dropped	-2601
▁fainted	-2602
▁finding	-2603
▁forward	-2604
▁hanging	-2605
▁happens	-2606
▁indones	-2607
▁knocked	-2608
▁machine	-2609
▁missing	-2610
▁noodles	-2611
▁oranges	-2612
▁patient	-2613
▁pleased	-2614
▁purpose	-2615
▁realize	-2616
▁similar	-2617
▁sixteen	-2618
▁subject	-2619
▁switzer	-2620
▁thanked	-2621
▁totally	-2622
▁tourist	-2623
▁wedding	-2624
▁admitted	-2625
▁airplane	-2626
▁anywhere	-2627
▁constell	-2628
▁contains	-2629
▁friendly	-2630
▁handsome	-2631
▁internet	-2632
▁medicine	-2633
▁mosquito	-2634
▁passport	-2635
▁planning	-2636
▁pressure	-2637
▁realized	-2638
▁schedule	-2639
▁screamed	-2640
▁stubborn	-2641
▁available	-2642
▁bookstore	-2643
▁christmas	-2644
▁countries	-2645
▁expecting	-2646
▁forgotten	-2647
▁generally	-2648
▁mountains	-2649
▁photograp	-2650
▁somewhere	-2651
▁telephone	-2652
▁translate	-2653
▁department	-2654
▁humiliated	-2655
▁illiterate	-2656
▁vegetables	-2657
▁intelligent	-2658
▁mathematics	-2659
▁stomachache	-2660
▁switzerland	-2661
ey	-2662
fl	-2663
gl	-2664
ks	-2665
ls	-2666
uk	-2667
ye	-2668
ago	-2669
arr	-2670
ata	-2671
bye	-2672
cts	-2673
eal	-2674
erc	-2675
ern	-2676
ery	-2677
ges	-2678
gle	-2679
gth	-2680
hip	-2681
imp	-2682
ism	-2683
ler	-2684
mer	-2685
omm	-2686
oms	-2687
oof	-2688
orc	-2689
ril	-2690
tic	-2691
uel	-2692
unt	-2693
yer	-2694
yle	-2695
▁10	-2696
▁hy	-2697
▁ko	-2698
▁ky	-2699
▁na	-2700
▁os	-2701
▁ug	-2702
▁ur	-2703
acel	-2704
aded	-2705
agaz	-2706
amed	-2707
barr	-2708
cell	-2709
dden	-2710
ears	-2711
elve	-2712
icul	-2713
iest	-2714
ined	-2715
ites	-2716
ness	-2717
omic	-2718
oned	-2719
osal	-2720
osit	-2721
ring	-2722
sake	-2723
uing	-2724
umed	-2725
ural	-2726
vern	-2727
▁bat	-2728
▁bee	-2729
▁ben	-2730
▁bes	-2731
▁cow	-2732
▁cre	-2733
▁cur	-2734
▁dry	-2735
▁due	-2736
▁fan	-2737
▁fat	-2738
▁fur	-2739
▁gun	-2740
▁ine	-2741
▁lad	-2742
▁len	-2743
▁lim	-2744
▁loc	-2745
▁mot	-2746
▁nap	-2747
▁odd	-2748
▁pan	-2749
▁pot	-2750
▁ris	-2751
▁sen	-2752
▁tap	-2753
▁top	-2754
▁vol	-2755
abbed	-2756
aches	-2757
alian	-2758
apers	-2759
asses	-2760
board	-2761
cript	-2762
epend	-2763
fered	-2764
gging	-2765
gnant	-2766
heart	-2767
icted	-2768
iddle	-2769
iders	-2770
iliar	-2771
iment	-2772
inted	-2773
iture	-2774
mpits	-2775
olved	-2776
orean	-2777
ories	-2778
rance	-2779
tered	-2780
utely	-2781
▁appl	-2782
▁arms	-2783
▁aunt	-2784
▁bags	-2785
▁begg	-2786
▁body	-2787
▁bomb	-2788
▁boys	-2789
▁card	-2790
▁case	-2791
▁cash	-2792
▁caus	-2793
▁chur	-2794
▁clos	-2795
▁copy	-2796
▁crim	-2797
▁data	-2798
▁dawn	-2799
▁deal	-2800
▁dece	-2801
▁disc	-2802
▁drew	-2803
▁drug	-2804
▁fant	-2805
▁fear	-2806
▁feet	-2807
▁file	-2808
▁film	-2809
▁fing	-2810
▁fond	-2811
▁furn	-2812
▁grew	-2813
▁hadn	-2814
▁kidn	-2815
▁leap	-2816
▁lung	-2817
▁myst	-2818
▁nerv	-2819
▁note	-2820
▁orig	-2821
▁page	-2822
▁pick	-2823
▁pool	-2824
▁pork	-2825
▁prep	-2826
▁push	-2827
▁rabb	-2828
▁race	-2829
▁repl	-2830
▁requ	-2831
▁sale	-2832
▁stun	-2833
▁type	-2834
▁ugly	-2835
▁warn	-2836
▁weap	-2837
▁woke	-2838
acelet	-2839
idence	-2840
igious	-2841
inated	-2842
ounced	-2843
sitate	-2844
urance	-2845
▁afric	-2846
▁april	-2847
▁avoid	-2848
▁badly	-2849
▁carry	-2850
▁cause	-2851
▁claim	-2852
▁cruel	-2853
▁email	-2854
▁event	-2855
▁exist	-2856
▁flood	-2857
▁gradu	-2858
▁grass	-2859
▁guard	-2860
▁guest	-2861
▁inven	-2862
▁magaz	-2863
▁marry	-2864
▁meant	-2865
▁offer	-2866
▁paris	-2867
▁persu	-2868
▁posit	-2869
▁power	-2870
▁relax	-2871
▁rooms	-2872
▁sells	-2873
▁sharp	-2874
▁shave	-2875
▁sixty	-2876
▁spicy	-2877
▁spilt	-2878
▁spoke	-2879
▁stamp	-2880
▁stink	-2881
▁stuff	-2882
▁sungl	-2883
▁super	-2884
▁swims	-2885
▁takes	-2886
▁tight	-2887
▁tools	-2888
▁tooth	-2889
▁towel	-2890
▁treat	-2891
▁truck	-2892
▁weren	-2893
▁whole	-2894
▁woods	-2895
barrass	-2896
cellent	-2897
iculous	-2898
itation	-2899
loading	-2900
orcycle	-2901
ossible	-2902
▁accomp	-2903
▁breath	-2904
▁bucket	-2905
▁burned	-2906
▁chairs	-2907
▁commit	-2908
▁cooked	-2909
▁direct	-2910
▁distur	-2911
▁enjoys	-2912
▁faster	-2913
▁friday	-2914
▁govern	-2915
▁harder	-2916
▁ignore	-2917
▁infect	-2918
▁invite	-2919
▁korean	-2920
▁lawyer	-2921
▁likely	-2922
▁mexico	-2923
▁middle	-2924
▁misses	-2925
▁narrow	-2926
▁nearby	-2927
▁places	-2928
▁quarre	-2929
▁recomm	-2930
▁regret	-2931
▁scient	-2932
▁signed	-2933
▁silent	-2934
▁singer	-2935
▁spring	-2936
▁sudden	-2937
▁twelve	-2938
▁unable	-2939
▁unfort	-2940
▁washed	-2941
▁within	-2942
▁worker	-2943
▁account	-2944
▁ancient	-2945
▁armpits	-2946
▁avoided	-2947
▁blanket	-2948
▁courage	-2949
▁crossed	-2950
▁culture	-2951
▁dressed	-2952
▁drivers	-2953
▁forsake	-2954
▁further	-2955
▁germany	-2956
▁goodbye	-2957
▁haircut	-2958
▁heavier	-2959
▁imagine	-2960
▁instead	-2961
▁italian	-2962
▁message	-2963
▁nations	-2964
▁natural	-2965
▁neither	-2966
▁nervous	-2967
▁obvious	-2968
▁offered	-2969
▁options	-2970
▁pointed	-2971
▁popular	-2972
▁pretend	-2973
▁refused	-2974
▁regular	-2975
▁reminds	-2976
▁rescued	-2977
▁respect	-2978
▁running	-2979
▁science	-2980
▁selfish	-2981
▁selling	-2982
▁service	-2983
▁shocked	-2984
▁staying	-2985
▁suspect	-2986
▁trapped	-2987
▁workman	-2988
▁american	-2989
▁appeared	-2990
▁arrested	-2991
▁arriving	-2992
▁atlantic	-2993
▁believes	-2994
▁bracelet	-2995
▁customer	-2996
▁deserves	-2997
▁distance	-2998
▁educated	-2999
▁engineer	-3000
▁entrance	-3001
▁familiar	-3002
▁feelings	-3003
▁headache	-3004
▁hesitate	-3005
▁imported	-3006
▁independ	-3007
▁laughing	-3008
▁magazine	-3009
▁mustache	-3010
▁official	-3011
▁positive	-3012
▁practice	-3013
▁pregnant	-3014
▁punctual	-3015
▁solution	-3016
▁strawber	-3017
▁suitcase	-3018
▁supposed	-3019
▁terrible	-3020
▁wherever	-3021
▁wondered	-3022
▁certainly	-3023
▁embarrass	-3024
▁excellent	-3025
▁furniture	-3026
▁happiness	-3027
▁insurance	-3028
▁ourselves	-3029
▁president	-3030
▁pretended	-3031
▁religious	-3032
▁satisfied	-3033
▁absolutely	-3034
▁apologized	-3035
▁difference	-3036
▁impossible	-3037
▁motorcycle	-3038
▁reasonable	-3039
▁ridiculous	-3040
▁sunglasses	-3041
▁translated	-3042
▁understood	-3043
▁vegetarian	-3044
▁constellation	-3045
▁responsibility	-3046
32	-3047
70	-3048
cr	-3049
dr	-3050
eg	-3051
kn	-3052
lu	-3053
ma	-3054
na	-3055
sc	-3056
sh	-3057
tu	-3058
uf	-3059
we	-3060
zz	-3061
acy	-3062
aka	-3063
ano	-3064
apt	-3065
ask	-3066
ato	-3067
cks	-3068
cul	-3069
ete	-3070
ets	-3071
gan	-3072
gre	-3073
hal	-3074
iff	-3075
ils	-3076
ima	-3077
isy	-3078
lew	-3079
men	-3080
mpt	-3081
ogy	-3082
orp	-3083
oto	-3084
ppy	-3085
pre	-3086
rem	-3087
ror	-3088
rup	-3089
ude	-3090
uge	-3091
uts	-3092
vol	-3093
▁50	-3094
▁ge	-3095
▁lo	-3096
ager	-3097
agon	-3098
aire	-3099
aked	-3100
amps	-3101
bidd	-3102
ckro	-3103
corn	-3104
dern	-3105
done	-3106
each	-3107
ease	-3108
ecut	-3109
empt	-3110
entr	-3111
eral	-3112
erve	-3113
eted	-3114
fess	-3115
have	-3116
ials	-3117
iche	-3118
icks	-3119
ides	-3120
ilos	-3121
ival	-3122
lebr	-3123
male	-3124
mber	-3125
ourn	-3126
over	-3127
time	-3128
uary	-3129
uted	-3130
vers	-3131
vest	-3132
zard	-3133
▁aid	-3134
▁alb	-3135
▁amb	-3136
▁anx	-3137
▁arr	-3138
▁bas	-3139
▁bon	-3140
▁bur	-3141
▁cab	-3142
▁cir	-3143
▁coo	-3144
▁dam	-3145
▁dan	-3146
▁def	-3147
▁det	-3148
▁fed	-3149
▁fig	-3150
▁gam	-3151
▁hop	-3152
▁hug	-3153
▁jun	-3154
▁mel	-3155
▁neg	-3156
▁non	-3157
▁opp	-3158
▁owe	-3159
▁pig	-3160
▁pil	-3161
▁pou	-3162
▁shr	-3163
▁sir	-3164
▁tid	-3165
▁tun	-3166
▁unf	-3167
▁unl	-3168
▁upd	-3169
▁van	-3170
▁vom	-3171
▁yog	-3172
ached	-3173
ality	-3174
antly	-3175
aptop	-3176
arded	-3177
arter	-3178
athed	-3179
atoes	-3180
ature	-3181
esome	-3182
hroom	-3183
icago	-3184
idays	-3185
istic	-3186
nical	-3187
opted	-3188
otion	-3189
ounce	-3190
rayed	-3191
ulate	-3192
urate	-3193
uthor	-3194
vator	-3195
▁area	-3196
▁beat	-3197
▁bush	-3198
▁camp	-3199
▁cent	-3200
▁cool	-3201
▁cows	-3202
▁crit	-3203
▁drow	-3204
▁embr	-3205
▁exit	-3206
▁fift	-3207
▁flat	-3208
▁gall	-3209
▁gear	-3210
▁grab	-3211
▁heat	-3212
▁hero	-3213
▁hill	-3214
▁hoax	-3215
▁insp	-3216
▁july	-3217
▁june	-3218
▁kick	-3219
▁lack	-3220
▁liar	-3221
▁lift	-3222
▁lion	-3223
▁mars	-3224
▁mask	-3225
▁ment	-3226
▁meth	-3227
▁mumb	-3228
▁neck	-3229
▁nons	-3230
▁ones	-3231
▁ours	-3232
▁poll	-3233
▁post	-3234
▁prin	-3235
▁priv	-3236
▁pull	-3237
▁puzz	-3238
▁reck	-3239
▁rode	-3240
▁runs	-3241
▁sear	-3242
▁sits	-3243
▁sour	-3244
▁spit	-3245
▁stut	-3246
▁term	-3247
▁text	-3248
▁thin	-3249
▁till	-3250
▁toot	-3251
▁toys	-3252
▁twin	-3253
▁upst	-3254
▁webs	-3255
▁wept	-3256
▁wide	-3257
▁wins	-3258
▁wise	-3259
▁wolf	-3260
▁york	-3261
bidden	-3262
ecuted	-3263
elling	-3264
ffered	-3265
ionist	-3266
issors	-3267
itched	-3268
market	-3269
mptoms	-3270
ounded	-3271
quakes	-3272
remely	-3273
rently	-3274
ressed	-3275
rolled	-3276
▁aband	-3277
▁alice	-3278
▁among	-3279
▁asian	-3280
▁aside	-3281
▁boots	-3282
▁boxes	-3283
▁brave	-3284
▁brush	-3285
▁buses	-3286
▁calls	-3287
▁cares	-3288
▁cheat	-3289
▁choos	-3290
▁chose	-3291
▁cloud	-3292
▁cried	-3293
▁crime	-3294
▁deals	-3295
▁divor	-3296
▁donut	-3297
▁doors	-3298
▁enemy	-3299
▁enter	-3300
▁exerc	-3301
▁fever	-3302
▁fianc	-3303
▁finds	-3304
▁flows	-3305
▁frequ	-3306
▁fried	-3307
▁games	-3308
▁grade	-3309
▁group	-3310
▁illeg	-3311
▁incre	-3312
▁india	-3313
▁journ	-3314
▁knock	-3315
▁kyoto	-3316
▁linux	-3317
▁local	-3318
▁lower	-3319
▁marri	-3320
▁memor	-3321
▁milky	-3322
▁naive	-3323
▁naked	-3324
▁noisy	-3325
▁north	-3326
▁organ	-3327
▁osaka	-3328
▁peach	-3329
▁popul	-3330
▁react	-3331
▁scare	-3332
▁scary	-3333
▁scorp	-3334
▁scrat	-3335
▁seats	-3336
▁separ	-3337
▁shake	-3338
▁shall	-3339
▁shelf	-3340
▁shoot	-3341
▁slice	-3342
▁snack	-3343
▁socks	-3344
▁solar	-3345
▁south	-3346
▁state	-3347
▁stead	-3348
▁stone	-3349
▁stops	-3350
▁storm	-3351
▁stuck	-3352
▁taxes	-3353
▁tells	-3354
▁trash	-3355
▁walls	-3356
▁wheat	-3357
▁whist	-3358
atively	-3359
entrate	-3360
hearted	-3361
ichever	-3362
ificate	-3363
inating	-3364
ruction	-3365
▁acting	-3366
▁admire	-3367
▁afford	-3368
▁asking	-3369
▁astrol	-3370
▁atmosp	-3371
▁author	-3372
▁banana	-3373
▁basket	-3374
▁behave	-3375
▁brakes	-3376
▁bright	-3377
▁buying	-3378
▁canada	-3379
▁causes	-3380
▁celebr	-3381
▁choose	-3382
▁church	-3383
▁cities	-3384
▁clever	-3385
▁cockro	-3386
▁cooper	-3387
▁danced	-3388
▁danger	-3389
▁decent	-3390
▁depend	-3391
▁drives	-3392
▁eighth	-3393
▁female	-3394
▁fixing	-3395
▁flight	-3396
▁fluent	-3397
▁fright	-3398
▁handle	-3399
▁headed	-3400
▁humans	-3401
▁invest	-3402
▁ironed	-3403
▁laptop	-3404
▁larger	-3405
▁meters	-3406
▁modern	-3407
▁monkey	-3408
▁myster	-3409
▁native	-3410
▁nature	-3411
▁norway	-3412
▁notice	-3413
▁parked	-3414
▁partic	-3415
▁pepper	-3416
▁poured	-3417
▁remain	-3418
▁repair	-3419
▁riding	-3420
▁rolled	-3421
▁salary	-3422
▁seated	-3423
▁served	-3424
▁skiing	-3425
▁spider	-3426
▁stamps	-3427
▁stands	-3428
▁surren	-3429
▁talked	-3430
▁toothp	-3431
▁trusts	-3432
▁undone	-3433
▁unless	-3434
▁useful	-3435
▁writes	-3436
idential	-3437
▁adopted	-3438
▁anxious	-3439
▁arguing	-3440
▁attempt	-3441
▁attract	-3442
▁awesome	-3443
▁belongs	-3444
▁bottles	-3445
▁calling	-3446
▁changes	-3447
▁chicago	-3448
▁cleaner	-3449
▁consult	-3450
▁decline	-3451
▁depends	-3452
▁destiny	-3453
▁destroy	-3454
▁disease	-3455
▁enjoyed	-3456
▁entered	-3457
▁escaped	-3458
▁express	-3459
▁falling	-3460
▁forever	-3461
▁heading	-3462
▁hearing	-3463
▁highway	-3464
▁insects	-3465
▁jumping	-3466
▁listens	-3467
▁matters	-3468
▁members	-3469
▁noticed	-3470
▁numbers	-3471
▁planets	-3472
▁popcorn	-3473
▁profess	-3474
▁project	-3475
▁provide	-3476
▁quarter	-3477
▁quickly	-3478
▁remains	-3479
▁results	-3480
▁schools	-3481
▁seconds	-3482
▁smarter	-3483
▁smiling	-3484
▁snowing	-3485
▁society	-3486
▁spiders	-3487
▁stabbed	-3488
▁studies	-3489
▁survive	-3490
▁thicker	-3491
▁vomited	-3492
▁watched	-3493
▁weapons	-3494
▁windows	-3495
▁workers	-3496
▁worries	-3497
▁accepted	-3498
▁believed	-3499
▁betrayed	-3500
▁breathed	-3501
▁brothers	-3502
▁careless	-3503
▁comments	-3504
▁compared	-3505
▁continue	-3506
▁counting	-3507
▁economic	-3508
▁elevator	-3509
▁embraced	-3510
▁entering	-3511
▁entirely	-3512
▁executed	-3513
▁fighting	-3514
▁greatest	-3515
▁holidays	-3516
▁interpre	-3517
▁interrup	-3518
▁invented	-3519
▁millions	-3520
▁murdered	-3521
▁mushroom	-3522
▁notebook	-3523
▁politics	-3524
▁position	-3525
▁previous	-3526
▁proposal	-3527
▁quitting	-3528
▁railroad	-3529
▁reckless	-3530
▁relaxing	-3531
▁replaced	-3532
▁restroom	-3533
▁scissors	-3534
▁shouting	-3535
▁spending	-3536
▁stronger	-3537
▁suddenly	-3538
▁suffered	-3539
▁surprise	-3540
▁switched	-3541
▁symptoms	-3542
▁universe	-3543
▁upstairs	-3544
▁abandoned	-3545
▁admission	-3546
▁announced	-3547
▁apartment	-3548
▁beginning	-3549
▁convicted	-3550
▁decisions	-3551
▁education	-3552
▁elephants	-3553
▁explained	-3554
▁extremely	-3555
▁fantastic	-3556
▁following	-3557
▁forbidden	-3558
▁graduated	-3559
▁indonesia	-3560
▁marketing	-3561
▁officials	-3562
▁paintings	-3563
▁policeman	-3564
▁recommend	-3565
▁regretted	-3566
▁scientist	-3567
▁sentenced	-3568
▁statement	-3569
▁succeeded	-3570
▁thousands	-3571
▁toothache	-3572
▁whichever	-3573
▁collecting	-3574
▁controlled	-3575
▁disappoint	-3576
▁discovered	-3577
▁eventually	-3578
▁everywhere	-3579
▁experiment	-3580
▁frequently	-3581
▁friendship	-3582
▁frightened	-3583
▁government	-3584
▁invitation	-3585
▁journalist	-3586
▁newspapers	-3587
▁originated	-3588
▁population	-3589
▁relatively	-3590
▁surprising	-3591
▁certificate	-3592
▁composition	-3593
▁concentrate	-3594
▁earthquakes	-3595
▁experienced	-3596
▁fortunately	-3597
▁millionaire	-3598
▁responsible	-3599
▁supermarket	-3600
▁confidential	-3601
▁construction	-3602
▁perfectionist	-3603
▁unfortunately	-3604
88	-3605
ae	-3606
ai	-3607
ev	-3608
go	-3609
ka	-3610
ko	-3611
li	-3612
ob	-3613
ti	-3614
ts	-3615
ub	-3616
vi	-3617
ze	-3618
▁7	-3619
abl	-3620
amm	-3621
asp	-3622
bag	-3623
bit	-3624
bly	-3625
bon	-3626
bur	-3627
chi	-3628
ckn	-3629
den	-3630
dge	-3631
dle	-3632
dry	-3633
eah	-3634
eas	-3635
eci	-3636
eva	-3637
fly	-3638
gel	-3639
het	-3640
hib	-3641
ido	-3642
ina	-3643
ino	-3644
ior	-3645
ipt	-3646
ius	-3647
ixt	-3648
jam	-3649
ked	-3650
kka	-3651
lly	-3652
lop	-3653
mit	-3654
nel	-3655
ogn	-3656
old	-3657
osh	-3658
ped	-3659
que	-3660
rer	-3661
rib	-3662
rit	-3663
sed	-3664
sha	-3665
tan	-3666
uct	-3667
umn	-3668
urs	-3669
val	-3670
yst	-3671
▁16	-3672
▁21	-3673
▁22	-3674
▁25	-3675
▁28	-3676
▁40	-3677
▁82	-3678
▁cy	-3679
▁ev	-3680
▁ir	-3681
▁je	-3682
▁oh	-3683
▁ox	-3684
▁ti	-3685
▁uf	-3686
▁uk	-3687
▁xy	-3688
abil	-3689
ague	-3690
alas	-3691
alax	-3692
anci	-3693
ango	-3694
anta	-3695
anto	-3696
ants	-3697
anut	-3698
ares	-3699
agna	-3700
ases	-3701
aste	-3702
atia	-3703
aven	-3704
azil	-3705
bage	-3706
bate	-3707
bing	-3708
bled	-3709
boat	-3710
cano	-3711
cast	-3712
cess	-3713
cked	-3714
cour	-3715
cuff	-3716
dded	-3717
eday	-3718
eddy	-3719
elry	-3720
eper	-3721
ergy	-3722
etry	-3723
fall	-3724
fest	-3725
gers	-3726
head	-3727
hone	-3728
hood	-3729
ians	-3730
ibly	-3731
iece	-3732
iers	-3733
ifle	-3734
igor	-3735
iles	-3736
illa	-3737
illy	-3738
inea	-3739
ines	-3740
ints	-3741
iped	-3742
irts	-3743
isun	-3744
ivil	-3745
keys	-3746
leas	-3747
like	-3748
ling	-3749
lody	-3750
mbol	-3751
mons	-3752
mony	-3753
mpoo	-3754
ners	-3755
ngue	-3756
olet	-3757
oors	-3758
ores	-3759
orms	-3760
orns	-3761
orth	-3762
orts	-3763
oton	-3764
ouch	-3765
pack	-3766
pric	-3767
rain	-3768
ravi	-3769
reat	-3770
rowd	-3771
semb	-3772
tain	-3773
tern	-3774
town	-3775
ucet	-3776
ucky	-3777
uled	-3778
ults	-3779
unch	-3780
unci	-3781
ures	-3782
urse	-3783
vert	-3784
ware	-3785
wich	-3786
wild	-3787
wled	-3788
wned	-3789
▁199	-3790
▁200	-3791
▁632	-3792
▁ace	-3793
▁agg	-3794
▁aud	-3795
▁cas	-3796
▁cro	-3797
▁dig	-3798
▁dye	-3799
ggae	-3800
▁err	-3801
▁est	-3802
▁fax	-3803
▁fet	-3804
▁fro	-3805
▁hey	-3806
▁iod	-3807
▁jan	-3808
▁jew	-3809
▁jup	-3810
▁kim	-3811
▁lab	-3812
▁las	-3813
▁lip	-3814
▁low	-3815
▁lux	-3816
▁mid	-3817
▁occ	-3818
▁oil	-3819
▁ost	-3820
▁pal	-3821
▁pud	-3822
▁row	-3823
▁sac	-3824
▁sew	-3825
▁shi	-3826
▁squ	-3827
▁sum	-3828
▁ufo	-3829
▁ult	-3830
▁unc	-3831
▁uns	-3832
▁ver	-3833
▁wha	-3834
agree	-3835
anged	-3836
anied	-3837
apore	-3838
arely	-3839
aries	-3840
asant	-3841
asons	-3842
azing	-3843
blind	-3844
cakes	-3845
child	-3846
ching	-3847
chure	-3848
cknow	-3849
crast	-3850
derer	-3851
derst	-3852
drant	-3853
eless	-3854
elled	-3855
endar	-3856
erful	-3857
essed	-3858
ffick	-3859
flies	-3860
grees	-3861
haust	-3862
herry	-3863
icism	-3864
igner	-3865
ility	-3866
imate	-3867
inced	-3868
ional	-3869
itish	-3870
itter	-3871
ivate	-3872
iving	-3873
jamas	-3874
kings	-3875
kirts	-3876
light	-3877
olded	-3878
onely	-3879
opard	-3880
orian	-3881
outhe	-3882
pters	-3883
ptune	-3884
reece	-3885
rible	-3886
rings	-3887
shake	-3888
tings	-3889
uable	-3890
umbus	-3891
umpet	-3892
unate	-3893
undry	-3894
urity	-3895
urred	-3896
uxite	-3897
vided	-3898
▁1888	-3899
▁aids	-3900
▁alth	-3901
▁bald	-3902
▁band	-3903
▁bark	-3904
▁barn	-3905
▁bars	-3906
▁beef	-3907
▁bend	-3908
▁bene	-3909
▁blew	-3910
▁boat	-3911
▁bone	-3912
▁buys	-3913
▁calm	-3914
▁cere	-3915
▁code	-3916
▁cong	-3917
▁cope	-3918
▁cops	-3919
▁cras	-3920
▁danc	-3921
▁defe	-3922
▁dess	-3923
▁diet	-3924
▁disp	-3925
▁diss	-3926
▁drop	-3927
▁dust	-3928
▁east	-3929
▁fash	-3930
▁fest	-3931
▁fits	-3932
▁fork	-3933
▁gram	-3934
▁gray	-3935
▁inex	-3936
▁jail	-3937
▁jeal	-3938
▁jobs	-3939
▁kite	-3940
▁lady	-3941
▁laid	-3942
▁laws	-3943
▁leak	-3944
▁lean	-3945
▁lies	-3946
▁lips	-3947
▁lugg	-3948
▁mail	-3949
▁mamm	-3950
▁mark	-3951
▁meal	-3952
▁mike	-3953
▁mixt	-3954
▁nail	-3955
▁nile	-3956
▁nove	-3957
▁numb	-3958
▁nuts	-3959
▁oper	-3960
▁pack	-3961
▁pair	-3962
▁panc	-3963
▁pays	-3964
▁ping	-3965
▁pink	-3966
▁pong	-3967
▁prec	-3968
▁rare	-3969
▁repe	-3970
▁rose	-3971
▁rude	-3972
▁sees	-3973
▁sexy	-3974
▁soap	-3975
▁soft	-3976
▁sons	-3977
▁spin	-3978
▁spot	-3979
▁step	-3980
▁sued	-3981
▁sunb	-3982
▁surr	-3983
▁swam	-3984
▁symp	-3985
▁tape	-3986
▁tech	-3987
▁teen	-3988
▁tidy	-3989
▁tied	-3990
▁tire	-3991
▁toen	-3992
▁toss	-3993
▁trad	-3994
▁unde	-3995
▁unif	-3996
▁unre	-3997
▁upon	-3998
▁vase	-3999
▁view	-4000
▁ways	-4001
▁weak	-4002
▁west	-4003
▁wore	-4004
▁yeah	-4005
▁yoga	-4006
aintan	-4007
akenly	-4008
angers	-4009
antage	-4010
astern	-4011
atient	-4012
cuffed	-4013
ertive	-4014
icated	-4015
keeper	-4016
kkaido	-4017
ledged	-4018
monade	-4019
ogical	-4020
ognize	-4021
oshima	-4022
ouched	-4023
ources	-4024
rength	-4025
ricity	-4026
ructor	-4027
sitive	-4028
ulance	-4029
ursday	-4030
velope	-4031
verage	-4032
▁admit	-4033
▁album	-4034
▁angel	-4035
▁angle	-4036
▁apply	-4037
▁apric	-4038
▁aware	-4039
▁awful	-4040
▁banjo	-4041
▁begun	-4042
▁below	-4043
▁bench	-4044
▁bends	-4045
▁bible	-4046
▁bites	-4047
▁bless	-4048
▁blink	-4049
▁boils	-4050
▁bonus	-4051
▁brain	-4052
▁brand	-4053
▁bunch	-4054
▁burns	-4055
▁cance	-4056
▁cared	-4057
▁cheek	-4058
▁civil	-4059
▁claus	-4060
▁cliff	-4061
▁climb	-4062
▁clown	-4063
▁coach	-4064
▁coinc	-4065
▁colon	-4066
▁confe	-4067
▁costs	-4068
▁couch	-4069
▁crash	-4070
▁crowd	-4071
▁cycle	-4072
▁daily	-4073
▁dated	-4074
▁diary	-4075
▁drove	-4076
▁drugs	-4077
▁ended	-4078
▁esper	-4079
▁explo	-4080
▁extra	-4081
▁faces	-4082
▁feeds	-4083
▁feels	-4084
▁final	-4085
▁flame	-4086
▁flute	-4087
▁focus	-4088
▁foods	-4089
▁fount	-4090
▁fresh	-4091
▁galax	-4092
▁gases	-4093
▁girls	-4094
▁grows	-4095
▁guide	-4096
▁hated	-4097
▁humor	-4098
▁ideas	-4099
▁ignor	-4100
▁influ	-4101
▁judge	-4102
▁kilos	-4103
▁leads	-4104
▁lunar	-4105
▁media	-4106
▁miles	-4107
▁minor	-4108
▁misun	-4109
▁mouse	-4110
▁mustn	-4111
▁nails	-4112
▁named	-4113
▁nerve	-4114
▁niece	-4115
▁nurse	-4116
▁opens	-4117
▁panic	-4118
▁pilot	-4119
▁plate	-4120
▁print	-4121
▁proof	-4122
▁puppy	-4123
▁purse	-4124
▁reach	-4125
▁reput	-4126
▁revol	-4127
▁rifle	-4128
▁roger	-4129
▁rough	-4130
▁santa	-4131
▁seeds	-4132
▁sheep	-4133
▁sheet	-4134
▁shine	-4135
▁shook	-4136
▁shops	-4137
▁shown	-4138
▁shuff	-4139
▁silly	-4140
▁skull	-4141
▁snake	-4142
▁speci	-4143
▁spent	-4144
▁spoon	-4145
▁spots	-4146
▁stung	-4147
▁style	-4148
▁sweep	-4149
▁tango	-4150
▁teddy	-4151
▁tends	-4152
▁theft	-4153
▁third	-4154
▁tower	-4155
▁trace	-4156
▁treas	-4157
▁trick	-4158
▁turns	-4159
▁vague	-4160
▁valid	-4161
▁vigor	-4162
▁wiped	-4163
▁worse	-4164
▁wound	-4165
▁xylop	-4166
attered	-4167
cessary	-4168
culator	-4169
entions	-4170
festyle	-4171
hausted	-4172
hibited	-4173
ication	-4174
idering	-4175
ination	-4176
itement	-4177
jection	-4178
ography	-4179
ologist	-4180
otonous	-4181
ressive	-4182
▁acknow	-4183
▁active	-4184
▁adults	-4185
▁advert	-4186
▁affect	-4187
▁africa	-4188
▁agrees	-4189
▁anyway	-4190
▁assume	-4191
▁autumn	-4192
▁barely	-4193
▁beggar	-4194
▁begged	-4195
▁beside	-4196
▁bewild	-4197
▁bitter	-4198
▁blamed	-4199
▁boiled	-4200
▁bother	-4201
▁brazil	-4202
▁butler	-4203
▁candle	-4204
▁carbon	-4205
▁charac	-4206
▁cherry	-4207
▁circus	-4208
▁closer	-4209
▁commun	-4210
▁corner	-4211
▁crimin	-4212
▁damage	-4213
▁dating	-4214
▁debate	-4215
▁deeply	-4216
▁defend	-4217
▁dipper	-4218
▁divide	-4219
▁double	-4220
▁dragon	-4221
▁dreams	-4222
▁employ	-4223
▁encour	-4224
▁energy	-4225
▁escape	-4226
▁establ	-4227
▁fallen	-4228
▁faucet	-4229
▁faults	-4230
▁figure	-4231
▁folded	-4232
▁france	-4233
▁frustr	-4234
▁geneva	-4235
▁genius	-4236
▁golden	-4237
▁greece	-4238
▁ground	-4239
▁guards	-4240
▁guests	-4241
▁hacked	-4242
▁heaven	-4243
▁height	-4244
▁higher	-4245
▁horror	-4246
▁hotter	-4247
▁inches	-4248
▁intend	-4249
▁itself	-4250
▁jacket	-4251
▁jumped	-4252
▁jungle	-4253
▁kitten	-4254
▁koalas	-4255
▁landed	-4256
▁lately	-4257
▁leader	-4258
▁lemons	-4259
▁length	-4260
▁limits	-4261
▁lining	-4262
▁locker	-4263
▁lonely	-4264
▁loudly	-4265
▁lovely	-4266
▁luxury	-4267
▁melody	-4268
▁melted	-4269
▁method	-4270
▁miller	-4271
▁moving	-4272
▁newest	-4273
▁nodded	-4274
▁onions	-4275
▁option	-4276
▁others	-4277
▁oxford	-4278
▁payday	-4279
▁peanut	-4280
▁peeled	-4281
▁plants	-4282
▁poetry	-4283
▁policy	-4284
▁polish	-4285
▁polite	-4286
▁posted	-4287
▁princi	-4288
▁purple	-4289
▁pushed	-4290
▁refuse	-4291
▁reggae	-4292
▁resign	-4293
▁sacred	-4294
▁scarce	-4295
▁season	-4296
▁shaved	-4297
▁shrimp	-4298
▁simple	-4299
▁single	-4300
▁slight	-4301
▁smiles	-4302
▁smokes	-4303
▁smooth	-4304
▁social	-4305
▁solved	-4306
▁source	-4307
▁southe	-4308
▁spends	-4309
▁spread	-4310
▁stones	-4311
▁strugg	-4312
▁subway	-4313
▁suffer	-4314
▁sunset	-4315
▁symbol	-4316
▁tasted	-4317
▁theory	-4318
▁thorns	-4319
▁thrown	-4320
▁tongue	-4321
▁toward	-4322
▁towels	-4323
▁trains	-4324
▁tunnel	-4325
▁waiter	-4326
▁warned	-4327
▁whales	-4328
▁wished	-4329
▁wolves	-4330
▁wooden	-4331
▁writer	-4332
ancially	-4333
children	-4334
cription	-4335
ervative	-4336
fficient	-4337
fficking	-4338
osterous	-4339
raviolet	-4340
▁ability	-4341
▁admired	-4342
▁admirer	-4343
▁advance	-4344
▁african	-4345
▁anytime	-4346
▁appears	-4347
▁approve	-4348
▁arrival	-4349
▁arrives	-4350
▁assumed	-4351
▁awfully	-4352
▁bauxite	-4353
▁besides	-4354
▁boiling	-4355
▁bowling	-4356
▁breathe	-4357
▁british	-4358
▁camping	-4359
▁capabil	-4360
▁carries	-4361
▁catches	-4362
▁charity	-4363
▁cheaper	-4364
▁claimed	-4365
▁clicked	-4366
▁compass	-4367
▁compete	-4368
▁congrat	-4369
▁contain	-4370
▁contest	-4371
▁convers	-4372
▁cookies	-4373
▁costume	-4374
▁crawled	-4375
▁croatia	-4376
▁crushed	-4377
▁dancing	-4378
▁degrees	-4379
▁delayed	-4380
▁dessert	-4381
▁digging	-4382
▁dislike	-4383
▁dreamed	-4384
▁economy	-4385
▁elected	-4386
▁employs	-4387
▁enemies	-4388
▁england	-4389
▁fashion	-4390
▁fasting	-4391
▁fiction	-4392
▁fifteen	-4393
▁fingern	-4394
▁fingers	-4395
▁flights	-4396
▁flooded	-4397
▁folding	-4398
▁fooling	-4399
▁foolish	-4400
▁funeral	-4401
▁gallery	-4402
▁garbage	-4403
▁greeted	-4404
▁growing	-4405
▁helpful	-4406
▁holding	-4407
▁honesty	-4408
▁hunting	-4409
▁hydrant	-4410
▁illegal	-4411
▁imposed	-4412
▁improve	-4413
▁ironing	-4414
▁january	-4415
▁jealous	-4416
▁jewelry	-4417
▁jogging	-4418
▁jupiter	-4419
▁kissing	-4420
▁lasagna	-4421
▁laundry	-4422
▁lending	-4423
▁leopard	-4424
▁lighter	-4425
▁longest	-4426
▁lottery	-4427
▁luggage	-4428
▁mammals	-4429
▁managed	-4430
▁manager	-4431
▁manners	-4432
▁meaning	-4433
▁mention	-4434
▁mexican	-4435
▁mixture	-4436
▁mondays	-4437
▁monkeys	-4438
▁mumbles	-4439
▁neptune	-4440
▁officer	-4441
▁pajamas	-4442
▁parking	-4443
▁peaches	-4444
▁pencils	-4445
▁politic	-4446
▁pottery	-4447
▁private	-4448
▁product	-4449
▁pudding	-4450
▁puzzled	-4451
▁quarrel	-4452
▁rabbits	-4453
▁railway	-4454
▁reacted	-4455
▁receipt	-4456
▁resumed	-4457
▁retired	-4458
▁rowboat	-4459
▁scolded	-4460
▁shampoo	-4461
▁shortly	-4462
▁shouted	-4463
▁silence	-4464
▁slapped	-4465
▁someday	-4466
▁speaker	-4467
▁staring	-4468
▁stomach	-4469
▁stories	-4470
▁stunned	-4471
▁stutter	-4472
▁sundays	-4473
▁support	-4474
▁suppose	-4475
▁swimmer	-4476
▁theater	-4477
▁tripped	-4478
▁trumpet	-4479
▁unlucky	-4480
▁useless	-4481
▁vikings	-4482
▁volcano	-4483
▁website	-4484
▁whistle	-4485
▁yelling	-4486
aintances	-4487
ibilities	-4488
restimate	-4489
unciation	-4490
▁accurate	-4491
▁although	-4492
▁applause	-4493
▁approach	-4494
▁apricots	-4495
▁arranged	-4496
▁audience	-4497
▁autistic	-4498
▁basement	-4499
▁brochure	-4500
▁calendar	-4501
▁ceremony	-4502
▁chapters	-4503
▁cheapest	-4504
▁cheerful	-4505
▁chickens	-4506
▁choosing	-4507
▁cleaning	-4508
▁columbus	-4509
▁consider	-4510
▁contacts	-4511
▁credible	-4512
▁criminal	-4513
▁declared	-4514
▁declined	-4515
▁destroys	-4516
▁diamonds	-4517
▁directly	-4518
▁disagree	-4519
▁divorced	-4520
▁downtown	-4521
▁drowning	-4522
▁earrings	-4523
▁envelope	-4524
▁escaping	-4525
▁explored	-4526
▁facebook	-4527
▁festival	-4528
▁forgiven	-4529
▁fountain	-4530
▁generous	-4531
▁hokkaido	-4532
▁honestly	-4533
▁horrible	-4534
▁increase	-4535
▁inspired	-4536
▁investig	-4537
▁involved	-4538
▁lemonade	-4539
▁listened	-4540
▁marriage	-4541
▁meetings	-4542
▁memorize	-4543
▁midnight	-4544
▁murderer	-4545
▁narrowly	-4546
▁negative	-4547
▁nonsense	-4548
▁novelist	-4549
▁november	-4550
▁offended	-4551
▁personal	-4552
▁persuade	-4553
▁pleasant	-4554
▁poisoned	-4555
▁possibly	-4556
▁prepared	-4557
▁procrast	-4558
▁progress	-4559
▁provided	-4560
▁remained	-4561
▁required	-4562
▁romantic	-4563
▁sandwich	-4564
▁scariest	-4565
▁security	-4566
▁settings	-4567
▁shutting	-4568
▁smallest	-4569
▁soldiers	-4570
▁starving	-4571
▁steadily	-4572
▁straight	-4573
▁strength	-4574
▁subjects	-4575
▁suitable	-4576
▁survived	-4577
▁terribly	-4578
▁thursday	-4579
▁toenails	-4580
▁tomatoes	-4581
▁truthful	-4582
▁uniforms	-4583
▁updating	-4584
▁valuable	-4585
▁vanished	-4586
▁vigorous	-4587
▁waitress	-4588
▁watering	-4589
▁worrying	-4590
▁accidents	-4591
▁accompany	-4592
▁advantage	-4593
▁alcoholic	-4594
▁ambulance	-4595
▁americans	-4596
▁assertive	-4597
▁assistant	-4598
▁astrology	-4599
▁attracted	-4600
▁buildings	-4601
▁childhood	-4602
▁committed	-4603
▁computers	-4604
▁continent	-4605
▁convinced	-4606
▁criticism	-4607
▁cultivate	-4608
▁currently	-4609
▁destroyed	-4610
▁discussed	-4611
▁disturbed	-4612
▁esperanto	-4613
▁exception	-4614
▁exhausted	-4615
▁geography	-4616
▁healthier	-4617
▁historian	-4618
▁impatient	-4619
▁impressed	-4620
▁improving	-4621
▁instantly	-4622
▁intention	-4623
▁kidnapped	-4624
▁lifestyle	-4625
▁milkshake	-4626
▁mysteries	-4627
▁necessary	-4628
▁obviously	-4629
▁persuaded	-4630
▁poisoning	-4631
▁pollution	-4632
▁practices	-4633
▁pronounce	-4634
▁quarreled	-4635
▁recognize	-4636
▁regularly	-4637
▁repairing	-4638
▁resources	-4639
▁scheduled	-4640
▁scratched	-4641
▁screaming	-4642
▁sensitive	-4643
▁sentences	-4644
▁seriously	-4645
▁singapore	-4646
▁strangers	-4647
▁suffering	-4648
▁suitcases	-4649
▁suspected	-4650
▁technical	-4651
▁uploading	-4652
▁waterfall	-4653
▁wonderful	-4654
▁xylophone	-4655
▁acceptable	-4656
▁accounting	-4657
▁acquainted	-4658
▁aggressive	-4659
▁assistance	-4660
▁atmosphere	-4661
▁basketball	-4662
▁bewildered	-4663
▁blackboard	-4664
▁calculator	-4665
▁collection	-4666
▁colorblind	-4667
▁complained	-4668
▁confidence	-4669
▁connection	-4670
▁excitement	-4671
▁experience	-4672
▁handcuffed	-4673
▁importance	-4674
▁indonesian	-4675
▁infectious	-4676
▁instructor	-4677
▁intentions	-4678
▁mistakenly	-4679
▁misunderst	-4680
▁monotonous	-4681
▁mosquitoes	-4682
▁particular	-4683
▁peacefully	-4684
▁photograph	-4685
▁pretending	-4686
▁prohibited	-4687
▁strawberry	-4688
▁successful	-4689
▁suggestion	-4690
▁themselves	-4691
▁toothpaste	-4692
▁accompanied	-4693
▁butterflies	-4694
▁cockroaches	-4695
▁complicated	-4696
▁conditioner	-4697
▁considering	-4698
▁cooperative	-4699
▁description	-4700
▁downloading	-4701
▁electricity	-4702
▁embarrassed	-4703
▁established	-4704
▁experiences	-4705
▁financially	-4706
▁frustrating	-4707
▁independent	-4708
▁inexpensive	-4709
▁interpreted	-4710
▁interrupted	-4711
▁possibility	-4712
▁surrendered	-4713
▁temperature	-4714
▁trafficking	-4715
▁ultraviolet	-4716
▁acknowledged	-4717
▁capabilities	-4718
▁conditioning	-4719
▁conservative	-4720
▁conversation	-4721
▁difficulties	-4722
▁expectations	-4723
▁independence	-4724
▁photographer	-4725
▁preposterous	-4726
▁professional	-4727
▁southeastern	-4728
▁strawberries	-4729
▁acquaintances	-4730
▁brokenhearted	-4731
▁disappointing	-4732
▁documentaries	-4733
▁grandchildren	-4734
▁possibilities	-4735
▁pronunciation	-4736
▁underestimate	-4737
▁recommendation	-4738
▁procrastinating	-4739
03	-4740
10	-4741
27	-4742
39	-4743
45	-4744
63	-4745
74	-4746
af	-4747
bu	-4748
cl	-4749
cy	-4750
da	-4751
eu	-4752
fu	-4753
fy	-4754
gr	-4755
gy	-4756
hj	-4757
ho	-4758
ht	-4759
ij	-4760
lk	-4761
ne	-4762
nn	-4763
ns	-4764
ok	-4765
ov	-4766
ox	-4767
pa	-4768
qr	-4769
sa	-4770
sg	-4771
sp	-4772
sr	-4773
sy	-4774
ta	-4775
tt	-4776
tz	-4777
wd	-4778
ya	-4779
yn	-4780
yt	-4781
271	-4782
acc	-4783
aii	-4784
aly	-4785
ama	-4786
ana	-4787
arf	-4788
arm	-4789
arw	-4790
asa	-4791
asc	-4792
asy	-4793
ats	-4794
avy	-4795
bow	-4796
bra	-4797
car	-4798
cha	-4799
rm	-4800
att	-4801
col	-4802
con	-4803
ctu	-4804
dds	-4805
dom	-4806
dri	-4807
edy	-4808
ees	-4809
ene	-4810
erk	-4811
erl	-4812
ero	-4813
erp	-4814
fed	-4815
fet	-4816
fir	-4817
fit	-4818
for	-4819
gen	-4820
gri	-4821
hew	-4822
hus	-4823
iar	-4824
ica	-4825
icr	-4826
iga	-4827
ini	-4828
ins	-4829
ipe	-4830
ipp	-4831
irl	-4832
isa	-4833
keb	-4834
kin	-4835
kok	-4836
lec	-4837
lee	-4838
lim	-4839
lls	-4840
lor	-4841
lus	-4842
nam	-4843
nes	-4844
nus	-4845
ods	-4846
oid	-4847
ole	-4848
oll	-4849
oni	-4850
ono	-4851
oti	-4852
pal	-4853
pes	-4854
ply	-4855
pot	-4856
raw	-4857
reg	-4858
rel	-4859
rep	-4860
rig	-4861
roe	-4862
rom	-4863
sia	-4864
sis	-4865
sts	-4866
tar	-4867
tes	-4868
thm	-4869
tle	-4870
tog	-4871
uan	-4872
ubl	-4873
uha	-4874
ulb	-4875
ulf	-4876
urd	-4877
vid	-4878
vit	-4879
wat	-4880
wns	-4881
xas	-4882
xed	-4883
xle	-4884
yal	-4885
yon	-4886
zzy	-4887
▁13	-4888
▁26	-4889
▁ah	-4890
▁bi	-4891
▁dj	-4892
▁ga	-4893
▁ic	-4894
▁mp	-4895
▁mr	-4896
▁ya	-4897
ades	-4898
ador	-4899
aks	-4900
eel	-4901
eur	-4902
eys	-4903
ifa	-4904
ols	-4905
uce	-4906
urt	-4907
▁11	-4908
agan	-4909
alay	-4910
aled	-4911
alse	-4912
alty	-4913
altz	-4914
amen	-4915
anch	-4916
anes	-4917
anze	-4918
aser	-4919
asty	-4920
atic	-4921
atus	-4922
ault	-4923
aurs	-4924
aves	-4925
azed	-4926
bbed	-4927
belt	-4928
bird	-4929
bles	-4930
cend	-4931
cent	-4932
cert	-4933
cher	-4934
chin	-4935
cipe	-4936
cius	-4937
coln	-4938
cook	-4939
days	-4940
deed	-4941
duct	-4942
eged	-4943
ener	-4944
enge	-4945
enic	-4946
eria	-4947
erly	-4948
erry	-4949
ette	-4950
eues	-4951
feit	-4952
fers	-4953
fety	-4954
form	-4955
gent	-4956
geon	-4957
ging	-4958
greg	-4959
hail	-4960
hand	-4961
harm	-4962
herd	-4963
hern	-4964
hers	-4965
husi	-4966
icle	-4967
icro	-4968
idow	-4969
ills	-4970
imet	-4971
imid	-4972
impl	-4973
inct	-4974
irac	-4975
irus	-4976
isis	-4977
ists	-4978
itch	-4979
itis	-4980
itiz	-4981
ives	-4982
lant	-4983
lfur	-4984
lift	-4985
line	-4986
ller	-4987
llet	-4988
mful	-4989
mmad	-4990
mont	-4991
moon	-4992
nthe	-4993
oler	-4994
omas	-4995
omed	-4996
omes	-4997
omin	-4998
oons	-4999
aff	-5000
ddy	-5001
equ	-5002
uki	-5003
umi	-5004
ums	-5005
▁17	-5006
agge	-5007
aker	-5008
arte	-5009
back	-5010
helf	-5011
ilyn	-5012
lict	-5013
opst	-5014
orge	-5015
oudy	-5016
ousy	-5017
oved	-5018
phys	-5019
pled	-5020
plus	-5021
pple	-5022
pred	-5023
qual	-5024
reas	-5025
reck	-5026
reen	-5027
rial	-5028
rich	-5029
rify	-5030
roar	-5031
roke	-5032
roll	-5033
seas	-5034
sica	-5035
sion	-5036
ssil	-5037
text	-5038
tube	-5039
tuce	-5040
ugee	-5041
uish	-5042
ulas	-5043
ulch	-5044
ulse	-5045
ulti	-5046
umor	-5047
umpy	-5048
uous	-5049
usty	-5050
utan	-5051
utes	-5052
verb	-5053
vine	-5054
wood	-5055
yond	-5056
▁abo	-5057
▁ach	-5058
▁aim	-5059
▁ant	-5060
▁bio	-5061
▁ble	-5062
▁bum	-5063
▁cds	-5064
▁clu	-5065
▁den	-5066
▁doe	-5067
▁eld	-5068
▁ess	-5069
▁fac	-5070
▁fis	-5071
▁fry	-5072
▁gaz	-5073
▁gon	-5074
▁goo	-5075
▁gor	-5076
▁gro	-5077
▁gum	-5078
▁haw	-5079
▁hay	-5080
▁heb	-5081
▁hir	-5082
▁hut	-5083
▁iss	-5084
▁jar	-5085
▁jit	-5086
▁kag	-5087
▁kan	-5088
▁ken	-5089
▁led	-5090
▁mac	-5091
▁mal	-5092
▁mop	-5093
▁mow	-5094
▁mum	-5095
▁mut	-5096
▁nep	-5097
▁nin	-5098
▁nut	-5099
ags	-5100
box	-5101
ebo	-5102
iev	-5103
ios	-5104
aith	-5105
dose	-5106
enos	-5107
fied	-5108
mets	-5109
ompl	-5110
osen	-5111
scri	-5112
▁800	-5113
▁bod	-5114
▁eff	-5115
▁kab	-5116
▁lee	-5117
▁obs	-5118
▁ove	-5119
▁pag	-5120
▁phr	-5121
▁poo	-5122
▁pow	-5123
▁pra	-5124
▁rap	-5125
▁ric	-5126
▁rus	-5127
▁rye	-5128
▁san	-5129
▁scr	-5130
▁sex	-5131
▁sin	-5132
▁sip	-5133
▁sli	-5134
▁sox	-5135
▁spl	-5136
▁sue	-5137
▁tal	-5138
▁tig	-5139
▁tir	-5140
▁usa	-5141
▁var	-5142
▁ves	-5143
▁via	-5144
▁vot	-5145
▁vul	-5146
▁wea	-5147
▁web	-5148
▁wes	-5149
▁wis	-5150
▁wow	-5151
▁yol	-5152
adays	-5153
aging	-5154
ailor	-5155
aitor	-5156
aling	-5157
allas	-5158
allel	-5159
amped	-5160
anate	-5161
ancis	-5162
andem	-5163
ander	-5164
anide	-5165
anies	-5166
anish	-5167
antee	-5168
antis	-5169
antum	-5170
arten	-5171
asian	-5172
atell	-5173
ateur	-5174
bling	-5175
cture	-5176
cular	-5177
dream	-5178
eding	-5179
elace	-5180
enbur	-5181
enden	-5182
ender	-5183
ented	-5184
entle	-5185
esman	-5186
ether	-5187
ffect	-5188
ffled	-5189
flage	-5190
heard	-5191
hered	-5192
heric	-5193
herit	-5194
hesis	-5195
iable	-5196
icill	-5197
icion	-5198
icist	-5199
lip	-5200
abis	-5201
ancy	-5202
ards	-5203
gged	-5204
sued	-5205
yscr	-5206
▁100	-5207
▁250	-5208
▁cem	-5209
▁fab	-5210
▁psy	-5211
▁sci	-5212
abble	-5213
acity	-5214
adise	-5215
angle	-5216
anned	-5217
ieved	-5218
illar	-5219
illas	-5220
illed	-5221
ilton	-5222
imary	-5223
inges	-5224
ining	-5225
irred	-5226
isely	-5227
isted	-5228
iterr	-5229
ittee	-5230
ivers	-5231
ivery	-5232
ledge	-5233
lings	-5234
lipse	-5235
lland	-5236
marks	-5237
matra	-5238
ments	-5239
mills	-5240
nated	-5241
niest	-5242
olves	-5243
ompat	-5244
oodle	-5245
opied	-5246
order	-5247
ority	-5248
ortal	-5249
orter	-5250
orthy	-5251
ortun	-5252
osion	-5253
osite	-5254
phoon	-5255
plant	-5256
proof	-5257
scarf	-5258
sened	-5259
sever	-5260
shire	-5261
stall	-5262
stick	-5263
tains	-5264
terin	-5265
ticip	-5266
tiest	-5267
ubber	-5268
uched	-5269
udged	-5270
ulted	-5271
uming	-5272
unted	-5273
upted	-5274
urely	-5275
urger	-5276
usage	-5277
using	-5278
xygen	-5279
▁1732	-5280
▁1903	-5281
▁1910	-5282
▁1992	-5283
▁1994	-5284
▁6322	-5285
▁aged	-5286
▁ages	-5287
▁alge	-5288
▁alum	-5289
▁anch	-5290
▁appa	-5291
▁army	-5292
▁asia	-5293
▁asks	-5294
▁bang	-5295
▁barg	-5296
▁bart	-5297
▁beds	-5298
▁beet	-5299
ocr	-5300
▁24	-5301
▁35	-5302
anky	-5303
athy	-5304
cipl	-5305
dles	-5306
inte	-5307
izes	-5308
unte	-5309
wise	-5310
worm	-5311
▁aza	-5312
▁fog	-5313
▁fox	-5314
▁hoc	-5315
aysia	-5316
dress	-5317
orary	-5318
ovies	-5319
storm	-5320
teous	-5321
ughty	-5322
ugust	-5323
▁1271	-5324
▁bell	-5325
▁bent	-5326
▁bide	-5327
▁bled	-5328
▁blog	-5329
▁boil	-5330
▁bore	-5331
▁brad	-5332
▁bulb	-5333
▁cass	-5334
▁cauc	-5335
▁cave	-5336
▁chat	-5337
▁chew	-5338
▁chol	-5339
▁clap	-5340
▁clue	-5341
▁clut	-5342
▁coun	-5343
▁cous	-5344
▁crun	-5345
▁cure	-5346
▁cute	-5347
▁cuts	-5348
▁dent	-5349
▁dish	-5350
▁dose	-5351
▁dove	-5352
▁emot	-5353
▁fail	-5354
▁fair	-5355
▁fake	-5356
▁fare	-5357
▁fate	-5358
▁feta	-5359
▁gain	-5360
▁glit	-5361
▁goal	-5362
▁goat	-5363
▁gout	-5364
▁grey	-5365
▁guar	-5366
▁guid	-5367
▁hamp	-5368
▁harp	-5369
▁hats	-5370
▁hect	-5371
▁hers	-5372
▁hook	-5373
▁hunt	-5374
▁ikeb	-5375
▁inha	-5376
▁insu	-5377
▁item	-5378
▁jell	-5379
▁khan	-5380
▁knot	-5381
▁koiz	-5382
▁lawn	-5383
▁leaf	-5384
▁link	-5385
▁loaf	-5386
▁loss	-5387
▁lumb	-5388
▁mahj	-5389
▁mall	-5390
▁meas	-5391
▁meek	-5392
▁merc	-5393
▁mere	-5394
▁mice	-5395
▁ming	-5396
▁mish	-5397
▁mock	-5398
▁mona	-5399
avas	-5400
buck	-5401
gery	-5402
pses	-5403
tled	-5404
unks	-5405
▁300	-5406
▁cnn	-5407
▁hip	-5408
bucks	-5409
erved	-5410
olars	-5411
oying	-5412
plied	-5413
rical	-5414
ronic	-5415
▁berg	-5416
▁dirt	-5417
▁dull	-5418
▁farm	-5419
▁febr	-5420
▁lamp	-5421
▁male	-5422
▁moth	-5423
▁neat	-5424
▁none	-5425
▁nort	-5426
▁oaks	-5427
▁opht	-5428
▁oslo	-5429
▁outd	-5430
▁oyst	-5431
▁pace	-5432
▁pant	-5433
▁pati	-5434
▁peak	-5435
▁phys	-5436
▁pigs	-5437
▁pist	-5438
▁pitt	-5439
▁poem	-5440
▁pome	-5441
▁port	-5442
▁pour	-5443
▁pudd	-5444
▁pump	-5445
▁punk	-5446
▁quiz	-5447
▁rang	-5448
▁rasp	-5449
▁rate	-5450
▁rays	-5451
▁rein	-5452
▁rele	-5453
▁reve	-5454
▁rise	-5455
▁root	-5456
▁rush	-5457
▁sail	-5458
▁sake	-5459
▁sang	-5460
▁scot	-5461
▁scyt	-5462
▁sept	-5463
▁sets	-5464
▁shep	-5465
▁shoe	-5466
▁sink	-5467
▁site	-5468
▁sket	-5469
▁soil	-5470
▁sort	-5471
▁spag	-5472
▁stab	-5473
▁stem	-5474
▁stew	-5475
▁suck	-5476
▁swum	-5477
▁tank	-5478
▁tens	-5479
▁tent	-5480
▁thri	-5481
▁tide	-5482
▁ties	-5483
▁tore	-5484
▁trim	-5485
▁unav	-5486
▁unha	-5487
▁unpl	-5488
▁unst	-5489
▁uses	-5490
▁ussr	-5491
▁vall	-5492
▁vary	-5493
▁viet	-5494
▁vine	-5495
▁wate	-5496
▁worm	-5497
▁yard	-5498
▁yuck	-5499
mare	-5500
▁tip	-5501
anean	-5502
emned	-5503
okers	-5504
ology	-5505
perly	-5506
tured	-5507
ulele	-5508
works	-5509
▁2003	-5510
▁cups	-5511
▁irre	-5512
▁mute	-5513
▁pets	-5514
▁sibl	-5515
▁skip	-5516
▁zeal	-5517
▁zomb	-5518
▁zool	-5519
aceful	-5520
acking	-5521
actory	-5522
alator	-5523
anding	-5524
aparte	-5525
arding	-5526
atedly	-5527
atting	-5528
bridge	-5529
cedure	-5530
cooked	-5531
covery	-5532
ctions	-5533
drates	-5534
earing	-5535
ection	-5536
eering	-5537
egedly	-5538
entine	-5539
entive	-5540
ergent	-5541
fering	-5542
giving	-5543
halifa	-5544
hentic	-5545
herman	-5546
icates	-5547
iental	-5548
igator	-5549
ighted	-5550
inates	-5551
iously	-5552
ipated	-5553
itches	-5554
itions	-5555
ivalry	-5556
ivered	-5557
jected	-5558
lantan	-5559
lecule	-5560
liness	-5561
llenge	-5562
manent	-5563
mative	-5564
mokers	-5565
namese	-5566
nesday	-5567
ocated	-5568
omatic	-5569
ooling	-5570
ordion	-5571
orming	-5572
ormous	-5573
orrect	-5574
penses	-5575
perate	-5576
plexed	-5577
prints	-5578
reased	-5579
rences	-5580
repren	-5581
rettes	-5582
rewdri	-5583
ricult	-5584
rigued	-5585
rophys	-5586
rument	-5587
uffing	-5588
ulated	-5589
ulfill	-5590
warded	-5591
ystack	-5592
▁abdom	-5593
▁absor	-5594
▁aches	-5595
▁acute	-5596
▁added	-5597
▁affir	-5598
▁aires	-5599
awa	-5600
▁42	-5601
▁60	-5602
▁80	-5603
chhi	-5604
coat	-5605
odas	-5606
raph	-5607
sels	-5608
▁obt	-5609
▁taj	-5610
anoid	-5611
chief	-5612
cover	-5613
hetti	-5614
ppery	-5615
secut	-5616
sized	-5617
tique	-5618
ttawa	-5619
▁aime	-5620
▁damp	-5621
▁debt	-5622
▁edge	-5623
▁fuel	-5624
▁kyiv	-5625
agraph	-5626
amenho	-5627
asters	-5628
atrist	-5629
ceries	-5630
priced	-5631
riches	-5632
tained	-5633
▁alike	-5634
▁anger	-5635
▁apart	-5636
▁arise	-5637
▁arrow	-5638
▁attic	-5639
▁attit	-5640
▁babys	-5641
▁bache	-5642
▁backs	-5643
▁balls	-5644
▁based	-5645
▁bathe	-5646
▁belly	-5647
▁bioha	-5648
▁booth	-5649
▁bound	-5650
▁boxer	-5651
▁brake	-5652
▁bride	-5653
▁brown	-5654
▁bumpy	-5655
▁cafet	-5656
▁caged	-5657
▁camou	-5658
▁canal	-5659
▁candy	-5660
▁carbo	-5661
▁chest	-5662
▁chimp	-5663
▁click	-5664
▁cloth	-5665
▁coast	-5666
▁coins	-5667
▁comic	-5668
▁confu	-5669
▁cooks	-5670
▁cover	-5671
▁crack	-5672
▁cries	-5673
▁cuter	-5674
▁daddy	-5675
▁dates	-5676
▁dinos	-5677
▁dolls	-5678
▁dried	-5679
▁drill	-5680
▁drums	-5681
▁earns	-5682
▁entry	-5683
▁excav	-5684
▁exped	-5685
▁falls	-5686
▁fasts	-5687
▁felon	-5688
▁fiber	-5689
▁files	-5690
▁flash	-5691
▁fleas	-5692
▁flies	-5693
▁fools	-5694
▁force	-5695
▁forks	-5696
▁forty	-5697
▁fract	-5698
▁frank	-5699
▁70	-5700
odox	-5701
ukio	-5702
yees	-5703
▁lud	-5704
▁rhy	-5705
imism	-5706
impse	-5707
orney	-5708
▁bats	-5709
▁bern	-5710
▁guts	-5711
▁hamb	-5712
▁iker	-5713
▁nara	-5714
▁rats	-5715
▁risk	-5716
▁roof	-5717
▁thud	-5718
bleeds	-5719
engers	-5720
eyball	-5721
flower	-5722
lerate	-5723
paring	-5724
uggler	-5725
▁argue	-5726
▁bills	-5727
▁chalk	-5728
▁dryer	-5729
▁dumbf	-5730
▁erase	-5731
▁gathe	-5732
▁gifts	-5733
▁goals	-5734
▁goods	-5735
▁gotta	-5736
▁grape	-5737
▁grasp	-5738
▁grind	-5739
▁grown	-5740
▁handy	-5741
▁hears	-5742
▁helen	-5743
▁helps	-5744
▁holds	-5745
▁holly	-5746
▁hopes	-5747
▁hyper	-5748
▁icing	-5749
▁ident	-5750
▁image	-5751
▁inequ	-5752
▁italy	-5753
▁jeans	-5754
▁jelly	-5755
▁kites	-5756
▁knits	-5757
▁lakes	-5758
▁leaks	-5759
▁liter	-5760
▁liver	-5761
▁lured	-5762
▁mahal	-5763
▁manuf	-5764
▁manus	-5765
▁march	-5766
▁match	-5767
▁mayor	-5768
▁meals	-5769
▁medal	-5770
▁meets	-5771
▁merry	-5772
▁metal	-5773
▁meter	-5774
▁micro	-5775
▁minis	-5776
▁mirac	-5777
▁mulch	-5778
▁names	-5779
▁noted	-5780
▁occup	-5781
▁ought	-5782
▁pacem	-5783
▁paint	-5784
▁pasta	-5785
▁pawns	-5786
▁pears	-5787
▁photo	-5788
▁picky	-5789
▁pimpl	-5790
▁plans	-5791
▁poker	-5792
▁pulse	-5793
▁quilt	-5794
▁quits	-5795
▁rabbi	-5796
▁reloc	-5797
▁reply	-5798
▁rings	-5799
tub	-5800
halm	-5801
elcha	-5802
knife	-5803
known	-5804
scope	-5805
▁1870	-5806
▁1970	-5807
▁burj	-5808
▁evol	-5809
▁flew	-5810
▁glob	-5811
▁huge	-5812
▁limo	-5813
▁loan	-5814
ilosop	-5815
luding	-5816
rorist	-5817
tories	-5818
▁burps	-5819
▁burst	-5820
▁fails	-5821
▁pecul	-5822
▁risen	-5823
▁rises	-5824
▁risks	-5825
▁risky	-5826
▁roads	-5827
▁ruler	-5828
▁sadly	-5829
▁safer	-5830
▁salon	-5831
▁salty	-5832
▁scarf	-5833
▁scent	-5834
▁score	-5835
▁scram	-5836
▁sends	-5837
▁serve	-5838
▁shape	-5839
▁shift	-5840
▁signs	-5841
▁skies	-5842
▁skips	-5843
▁snows	-5844
▁snowy	-5845
▁solid	-5846
▁songs	-5847
▁space	-5848
▁staff	-5849
▁steak	-5850
▁stiff	-5851
▁stret	-5852
▁suits	-5853
▁sunsc	-5854
▁swear	-5855
▁sweat	-5856
▁swell	-5857
▁sword	-5858
▁tails	-5859
▁taped	-5860
▁tasty	-5861
▁tears	-5862
▁tease	-5863
▁tense	-5864
▁tests	-5865
▁texas	-5866
▁tires	-5867
▁toast	-5868
▁topic	-5869
▁tries	-5870
▁uncom	-5871
▁uneth	-5872
▁unfit	-5873
▁urged	-5874
▁using	-5875
▁usual	-5876
▁value	-5877
▁venus	-5878
▁virus	-5879
▁vivid	-5880
▁walks	-5881
▁whirl	-5882
▁wines	-5883
▁wings	-5884
▁withd	-5885
▁woken	-5886
▁wrest	-5887
agement	-5888
alistic	-5889
amenhof	-5890
anation	-5891
andemic	-5892
aration	-5893
athetic	-5894
berries	-5895
brother	-5896
burgers	-5897
certain	-5898
cussion	-5899
knob	-5900
▁212	-5901
▁828	-5902
going	-5903
grily	-5904
▁club	-5905
▁duct	-5906
▁ecli	-5907
▁evil	-5908
▁koko	-5909
▁tips	-5910
entina	-5911
ucture	-5912
▁belts	-5913
▁fifty	-5914
▁habit	-5915
▁irrit	-5916
▁lacks	-5917
▁mango	-5918
▁melts	-5919
▁multi	-5920
▁pants	-5921
▁poked	-5922
▁prize	-5923
▁puked	-5924
▁terms	-5925
▁tuned	-5926
▁twins	-5927
▁unfin	-5928
bitants	-5929
gestive	-5930
hailand	-5931
harmacy	-5932
ictable	-5933
idences	-5934
ifiable	-5935
ificial	-5936
issible	-5937
itional	-5938
ization	-5939
lloween	-5940
matical	-5941
ocopied	-5942
oidable	-5943
olerant	-5944
onsible	-5945
onsider	-5946
ouraged	-5947
overing	-5948
parable	-5949
plussed	-5950
ression	-5951
ributed	-5952
ributes	-5953
ritious	-5954
section	-5955
sembles	-5956
terfeit	-5957
▁aboard	-5958
▁abomin	-5959
▁abused	-5960
▁accent	-5961
▁access	-5962
▁action	-5963
▁albino	-5964
▁amazed	-5965
▁ambass	-5966
▁amends	-5967
▁amount	-5968
▁appeal	-5969
▁assign	-5970
▁atomic	-5971
▁banker	-5972
▁barber	-5973
▁beards	-5974
▁beings	-5975
▁believ	-5976
▁border	-5977
▁bottom	-5978
▁bricks	-5979
▁buried	-5980
▁bushes	-5981
▁busier	-5982
▁cables	-5983
▁cancel	-5984
▁canyon	-5985
▁cellar	-5986
▁cement	-5987
▁center	-5988
▁cheers	-5989
▁choosy	-5990
▁circle	-5991
▁closet	-5992
▁clover	-5993
▁colors	-5994
▁commas	-5995
▁conned	-5996
▁cooker	-5997
▁cookie	-5998
▁coupon	-5999
raine	-6000
tario	-6001
▁palm	-6002
▁ahead	-6003
▁bores	-6004
▁dizzy	-6005
▁enfor	-6006
▁fetch	-6007
▁grams	-6008
▁hypot	-6009
▁label	-6010
▁labor	-6011
▁pinea	-6012
▁squir	-6013
▁steps	-6014
actures	-6015
sembled	-6016
▁adores	-6017
▁brandy	-6018
▁casual	-6019
▁cheeks	-6020
▁colony	-6021
▁coward	-6022
▁cranky	-6023
▁create	-6024
▁crisis	-6025
▁decade	-6026
▁defeat	-6027
▁delays	-6028
▁delete	-6029
▁demand	-6030
▁democr	-6031
▁denied	-6032
▁detail	-6033
▁device	-6034
▁diagon	-6035
▁dining	-6036
▁dishes	-6037
▁disreg	-6038
▁dissat	-6039
▁divine	-6040
▁dollar	-6041
▁donkey	-6042
▁donned	-6043
▁dozens	-6044
▁driven	-6045
▁duties	-6046
▁easter	-6047
▁eaters	-6048
▁edible	-6049
▁edison	-6050
▁effect	-6051
▁eighty	-6052
▁eleven	-6053
▁enters	-6054
▁eraser	-6055
▁errors	-6056
▁examin	-6057
▁expert	-6058
▁exting	-6059
▁facing	-6060
▁farmer	-6061
▁feared	-6062
▁filter	-6063
▁flames	-6064
▁floods	-6065
▁flying	-6066
▁folder	-6067
▁fooled	-6068
▁formal	-6069
▁frozen	-6070
▁galaxy	-6071
▁gander	-6072
▁gazebo	-6073
▁gladly	-6074
▁global	-6075
▁golfer	-6076
▁gotten	-6077
▁grader	-6078
▁grades	-6079
▁grated	-6080
▁greets	-6081
▁guinea	-6082
▁hammer	-6083
▁hatred	-6084
▁hawaii	-6085
▁hazard	-6086
▁heated	-6087
▁heater	-6088
▁heroes	-6089
▁hidden	-6090
▁highly	-6091
▁hiking	-6092
▁hinges	-6093
▁hoping	-6094
▁hotels	-6095
▁humble	-6096
▁hunger	-6097
▁hunter	-6098
▁idioms	-6099
▁qr	-6100
▁839	-6101
▁dyn	-6102
▁msg	-6103
arwin	-6104
cloth	-6105
conut	-6106
erlin	-6107
ijing	-6108
inium	-6109
oleon	-6110
ublai	-6111
▁1945	-6112
▁1963	-6113
▁1974	-6114
▁axle	-6115
▁ciga	-6116
▁fasc	-6117
▁glee	-6118
▁lewd	-6119
▁lisa	-6120
▁muha	-6121
▁nasa	-6122
▁odds	-6123
▁pipe	-6124
▁soda	-6125
▁tofu	-6126
▁tone	-6127
▁ursa	-6128
▁voll	-6129
▁wavy	-6130
▁yuan	-6131
▁zero	-6132
icrous	-6133
ippers	-6134
lusion	-6135
romise	-6136
▁alarm	-6137
▁altog	-6138
▁clerk	-6139
▁gauge	-6140
▁inacc	-6141
▁knees	-6142
▁piggy	-6143
▁royal	-6144
▁scene	-6145
▁steel	-6146
▁types	-6147
▁unatt	-6148
ctuates	-6149
forests	-6150
parents	-6151
thmical	-6152
vitable	-6153
▁absurd	-6154
▁barfed	-6155
▁battle	-6156
▁berlin	-6157
▁bodybu	-6158
▁caterp	-6159
▁comedy	-6160
▁darwin	-6161
▁impact	-6162
▁indeed	-6163
▁indust	-6164
▁injury	-6165
▁insect	-6166
▁iodine	-6167
▁joined	-6168
▁joints	-6169
▁junior	-6170
▁kidney	-6171
▁kimchi	-6172
▁kimono	-6173
▁kindly	-6174
▁kublai	-6175
▁ladies	-6176
▁ladino	-6177
▁laughs	-6178
▁layout	-6179
▁leaned	-6180
▁lenses	-6181
▁lesson	-6182
▁lizard	-6183
▁loaded	-6184
▁manner	-6185
▁marine	-6186
▁marker	-6187
▁medina	-6188
▁memory	-6189
▁mening	-6190
▁mental	-6191
▁mentor	-6192
▁minded	-6193
▁monroe	-6194
▁mugged	-6195
▁murder	-6196
▁muslim	-6197
▁naples	-6198
▁nation	-6199
▁tags	-6200
alayan	-6201
anzees	-6202
equate	-6203
itizen	-6204
ogenic	-6205
uously	-6206
▁buddy	-6207
▁clubs	-6208
▁equal	-6209
▁essay	-6210
▁false	-6211
▁gonna	-6212
▁homes	-6213
▁issue	-6214
▁kanji	-6215
▁kenya	-6216
▁lousy	-6217
▁mumps	-6218
▁pitch	-6219
▁rumor	-6220
▁rusty	-6221
▁sauce	-6222
▁waltz	-6223
▁widow	-6224
▁wreck	-6225
aggered	-6226
imeters	-6227
lifting	-6228
nthetic	-6229
ontroll	-6230
▁archer	-6231
▁beyond	-6232
▁bleach	-6233
▁branch	-6234
▁bullet	-6235
▁chopst	-6236
▁cloudy	-6237
▁fossil	-6238
▁george	-6239
▁hebrew	-6240
▁keller	-6241
▁knives	-6242
▁mowing	-6243
▁mutual	-6244
▁nearly	-6245
▁needle	-6246
▁negoti	-6247
▁nephew	-6248
▁ninety	-6249
▁noises	-6250
▁oceans	-6251
▁oilier	-6252
▁oldest	-6253
▁online	-6254
▁orders	-6255
▁outage	-6256
▁owners	-6257
▁palace	-6258
▁panama	-6259
▁papers	-6260
▁passes	-6261
▁pawned	-6262
▁paying	-6263
▁phones	-6264
▁pilots	-6265
▁planes	-6266
▁poorly	-6267
▁powers	-6268
▁premat	-6269
▁psychi	-6270
▁pulled	-6271
▁purify	-6272
▁queues	-6273
▁rabbit	-6274
▁rabies	-6275
▁radios	-6276
▁reagan	-6277
▁recipe	-6278
▁record	-6279
▁remove	-6280
▁rescue	-6281
▁reserv	-6282
▁rested	-6283
▁retire	-6284
▁reused	-6285
▁ridden	-6286
▁robbed	-6287
▁rushed	-6288
▁russia	-6289
▁safety	-6290
▁salmon	-6291
▁satisf	-6292
▁saving	-6293
▁scythe	-6294
▁search	-6295
▁segreg	-6296
▁senior	-6297
▁sensed	-6298
▁sewing	-6299
enburg	-6300
worthy	-6301
▁faith	-6302
▁yolks	-6303
ancisco	-6304
endency	-6305
granate	-6306
icillin	-6307
▁bodily	-6308
▁buenos	-6309
▁chosen	-6310
▁dallas	-6311
▁fabric	-6312
▁gentle	-6313
▁hilton	-6314
▁kabuki	-6315
▁legged	-6316
▁mortal	-6317
▁nudged	-6318
▁oxygen	-6319
▁poodle	-6320
▁pooped	-6321
▁richer	-6322
▁rubber	-6323
▁satell	-6324
▁sharks	-6325
▁shaves	-6326
▁shells	-6327
▁shirts	-6328
▁shoved	-6329
▁sickle	-6330
▁simply	-6331
▁sinned	-6332
▁skinny	-6333
▁skyscr	-6334
▁slaves	-6335
▁sleeps	-6336
▁sliced	-6337
▁slices	-6338
▁slides	-6339
▁smoker	-6340
▁snakes	-6341
▁soared	-6342
▁sooner	-6343
▁spades	-6344
▁spoons	-6345
▁stared	-6346
▁stated	-6347
▁status	-6348
▁steady	-6349
▁sticky	-6350
▁stinks	-6351
▁stinky	-6352
▁stress	-6353
▁strict	-6354
▁stroke	-6355
▁struck	-6356
▁submit	-6357
▁subord	-6358
▁sulfur	-6359
▁swears	-6360
▁tailor	-6361
▁teabag	-6362
▁theirs	-6363
▁thesis	-6364
▁thomas	-6365
▁threat	-6366
▁tigers	-6367
▁timing	-6368
▁tiring	-6369
▁tossed	-6370
▁treats	-6371
▁treaty	-6372
▁tricks	-6373
▁trunks	-6374
▁unfair	-6375
▁unorth	-6376
▁unpack	-6377
▁unpred	-6378
▁unsure	-6379
▁upload	-6380
▁uproar	-6381
▁urchin	-6382
▁urgent	-6383
▁volume	-6384
▁voting	-6385
▁vulgar	-6386
▁warmer	-6387
▁waters	-6388
▁wealth	-6389
▁weapon	-6390
▁whiter	-6391
▁wishes	-6392
▁yawned	-6393
▁yogurt	-6394
angement	-6395
asonable	-6396
boarding	-6397
carnated	-6398
ciplined	-6399
▁javas	-6400
dresser	-6401
▁august	-6402
▁bergen	-6403
▁hockey	-6404
▁irresp	-6405
▁uninte	-6406
▁valley	-6407
▁zombie	-6408
dreaming	-6409
ergarten	-6410
hydrates	-6411
imidated	-6412
mingbird	-6413
olarship	-6414
ortunity	-6415
oundings	-6416
pedaling	-6417
scribing	-6418
stalline	-6419
ticipate	-6420
ulations	-6421
watching	-6422
▁absorbs	-6423
▁accompl	-6424
▁achieve	-6425
▁actress	-6426
▁admires	-6427
▁advises	-6428
▁algebra	-6429
▁amateur	-6430
▁amazing	-6431
▁answers	-6432
▁antares	-6433
▁apology	-6434
▁applied	-6435
▁article	-6436
▁artists	-6437
▁assault	-6438
▁assists	-6439
▁assured	-6440
▁average	-6441
▁azaleas	-6442
▁baffled	-6443
▁balloon	-6444
▁bangkok	-6445
▁battery	-6446
▁beetles	-6447
▁beijing	-6448
▁beneath	-6449
▁benefit	-6450
▁biggest	-6451
▁biology	-6452
▁blacked	-6453
▁blazing	-6454
▁blinked	-6455
▁blocked	-6456
▁blushed	-6457
▁boarded	-6458
▁bottled	-6459
▁burning	-6460
▁canteen	-6461
▁carried	-6462
▁cashier	-6463
▁causing	-6464
▁ceiling	-6465
▁century	-6466
▁chances	-6467
▁charged	-6468
▁charges	-6469
▁charter	-6470
▁cheated	-6471
▁checked	-6472
▁cholera	-6473
▁clapped	-6474
▁classes	-6475
▁cleaned	-6476
▁clipped	-6477
▁closest	-6478
▁coached	-6479
▁coconut	-6480
▁commute	-6481
▁concern	-6482
▁conduct	-6483
▁confess	-6484
▁conform	-6485
▁confuse	-6486
▁consent	-6487
▁context	-6488
▁corsica	-6489
▁coupons	-6490
▁cousins	-6491
▁cramped	-6492
▁crashed	-6493
▁created	-6494
▁creator	-6495
▁crowded	-6496
▁curtain	-6497
▁cutting	-6498
▁cyanide	-6499
▁yukio	-6500
elchair	-6501
▁ottawa	-6502
chhiking	-6503
kerchief	-6504
secutive	-6505
▁angrily	-6506
▁antique	-6507
▁bathtub	-6508
▁cynical	-6509
▁damaged	-6510
▁dealing	-6511
▁deceive	-6512
▁defense	-6513
▁deleted	-6514
▁dentist	-6515
▁descend	-6516
▁deserve	-6517
▁desired	-6518
▁disturb	-6519
▁divorce	-6520
▁doctors	-6521
▁donated	-6522
▁drawing	-6523
▁drowned	-6524
▁dynasty	-6525
▁eclipse	-6526
▁efforts	-6527
▁elderly	-6528
▁emotion	-6529
▁emptied	-6530
▁endless	-6531
▁enthusi	-6532
▁erupted	-6533
▁examine	-6534
▁example	-6535
▁excited	-6536
▁expired	-6537
▁explode	-6538
▁exploit	-6539
▁exports	-6540
▁extinct	-6541
▁fantasy	-6542
▁feeding	-6543
▁fireman	-6544
▁flapped	-6545
▁flipped	-6546
▁flushed	-6547
▁forgery	-6548
▁fortune	-6549
▁founded	-6550
▁frantic	-6551
▁fulfill	-6552
▁furious	-6553
▁gallons	-6554
▁gambled	-6555
▁gambles	-6556
▁glimpse	-6557
▁goofing	-6558
▁gorilla	-6559
▁grabbed	-6560
▁guesses	-6561
▁hallway	-6562
▁handbag	-6563
▁harmful	-6564
▁haunted	-6565
▁heating	-6566
▁helmets	-6567
▁hideout	-6568
▁holland	-6569
▁however	-6570
▁hunters	-6571
▁hurting	-6572
▁ikebana	-6573
▁illness	-6574
▁indoors	-6575
▁inherit	-6576
▁intense	-6577
▁iodized	-6578
▁jittery	-6579
▁joining	-6580
▁khalifa	-6581
▁kidneys	-6582
▁killers	-6583
▁killing	-6584
▁knowing	-6585
▁koizumi	-6586
▁leaking	-6587
▁leaning	-6588
▁lecture	-6589
▁leeches	-6590
▁lenient	-6591
▁lettuce	-6592
▁limited	-6593
▁lincoln	-6594
▁located	-6595
▁luckily	-6596
▁lumbago	-6597
▁mahjong	-6598
▁mansion	-6599
▁citizen	-6600
▁marched	-6601
▁marilyn	-6602
▁marital	-6603
▁matches	-6604
▁mercury	-6605
▁messing	-6606
▁methods	-6607
▁milkman	-6608
▁mineral	-6609
▁mishima	-6610
▁mumbled	-6611
▁museums	-6612
▁musical	-6613
▁mystery	-6614
▁naughty	-6615
▁needles	-6616
▁nowhere	-6617
▁ontario	-6618
▁opening	-6619
▁opposed	-6620
▁ordered	-6621
▁organic	-6622
▁ostrich	-6623
▁overeat	-6624
▁oysters	-6625
▁pagodas	-6626
▁painful	-6627
▁panting	-6628
▁parties	-6629
▁passing	-6630
▁passion	-6631
▁pattern	-6632
▁peeling	-6633
▁percent	-6634
▁perform	-6635
▁phrased	-6636
▁physics	-6637
▁pillows	-6638
▁pimples	-6639
▁pistols	-6640
▁planned	-6641
▁players	-6642
▁pleaded	-6643
▁prefers	-6644
▁pressed	-6645
▁primary	-6646
▁printer	-6647
▁privacy	-6648
▁promote	-6649
▁prophet	-6650
▁propose	-6651
▁protest	-6652
▁proverb	-6653
▁puddles	-6654
▁pumpkin	-6655
▁pursued	-6656
▁putting	-6657
▁quality	-6658
▁quantum	-6659
▁quietly	-6660
▁rainbow	-6661
▁rattled	-6662
▁reached	-6663
▁reasons	-6664
▁receive	-6665
▁refrain	-6666
▁refugee	-6667
▁regards	-6668
▁relaxed	-6669
▁repeats	-6670
▁replace	-6671
▁reputed	-6672
▁request	-6673
▁respond	-6674
▁restart	-6675
▁resting	-6676
▁retires	-6677
▁retract	-6678
▁revolve	-6679
▁ringing	-6680
▁rivalry	-6681
▁saddles	-6682
▁sadness	-6683
▁sailors	-6684
▁sausage	-6685
▁scanned	-6686
▁scorpio	-6687
▁seasons	-6688
▁section	-6689
▁sending	-6690
▁seventh	-6691
▁sharpen	-6692
▁shaving	-6693
▁shorter	-6694
▁showing	-6695
▁shrines	-6696
▁shuffle	-6697
▁signals	-6698
▁sinking	-6699
▁sisters	-6700
▁smaller	-6701
▁smelled	-6702
▁snowman	-6703
▁spanish	-6704
▁spelled	-6705
▁spilled	-6706
▁spinach	-6707
▁spoiled	-6708
▁spurred	-6709
▁stirred	-6710
▁suffice	-6711
▁sumatra	-6712
▁sunburn	-6713
▁surgeon	-6714
▁surgery	-6715
▁teenage	-6716
▁temples	-6717
▁testing	-6718
▁tickets	-6719
▁tidying	-6720
▁tighten	-6721
▁toaster	-6722
▁touched	-6723
▁towards	-6724
▁traitor	-6725
▁tripled	-6726
▁turning	-6727
▁twitter	-6728
▁typhoon	-6729
▁ukraine	-6730
▁ukulele	-6731
▁unclear	-6732
▁unhappy	-6733
▁unknown	-6734
▁updated	-6735
▁vacancy	-6736
▁vanilla	-6737
▁various	-6738
▁vermont	-6739
▁vessels	-6740
▁veterin	-6741
▁vinegar	-6742
▁vividly	-6743
▁volunte	-6744
▁wanting	-6745
▁warning	-6746
▁wasting	-6747
▁watches	-6748
▁watered	-6749
▁weaving	-6750
▁western	-6751
▁whoever	-6752
▁willing	-6753
▁winning	-6754
▁witness	-6755
▁wonders	-6756
▁wounded	-6757
▁wrapped	-6758
▁youtube	-6759
▁zealand	-6760
▁zoology	-6761
cientious	-6762
heartedly	-6763
henticity	-6764
ompatible	-6765
ouncement	-6766
portation	-6767
repreneur	-6768
riculture	-6769
severance	-6770
▁absolute	-6771
▁addicted	-6772
▁addition	-6773
▁adequate	-6774
▁annoying	-6775
▁atlantis	-6776
▁attacked	-6777
▁attended	-6778
▁attitude	-6779
▁attorney	-6780
▁bachelor	-6781
▁backpack	-6782
▁bearings	-6783
▁beverage	-6784
▁blinders	-6785
▁bluffing	-6786
▁boarding	-6787
▁bothered	-6788
▁bringing	-6789
▁canceled	-6790
▁cannabis	-6791
▁capacity	-6792
▁captured	-6793
▁carrying	-6794
▁casillas	-6795
▁cassette	-6796
▁changing	-6797
▁charming	-6798
▁childish	-6799
▁churches	-6800
▁clearing	-6801
▁clippers	-6802
▁clothing	-6803
▁coaching	-6804
▁colonial	-6805
▁conflict	-6806
▁connects	-6807
▁conserve	-6808
▁constant	-6809
▁contract	-6810
▁crashing	-6811
▁creative	-6812
▁critical	-6813
▁crouched	-6814
▁crunches	-6815
▁cultured	-6816
▁cultures	-6817
▁cupboard	-6818
▁cupcakes	-6819
▁curtains	-6820
▁deceived	-6821
▁december	-6822
▁defeated	-6823
▁delivers	-6824
▁delivery	-6825
▁designer	-6826
▁destined	-6827
▁detained	-6828
▁disposal	-6829
▁doorknob	-6830
▁download	-6831
▁drooling	-6832
▁eclipses	-6833
▁eggplant	-6834
▁eighties	-6835
▁emotions	-6836
▁employee	-6837
▁enforced	-6838
▁enormous	-6839
▁everyday	-6840
▁evidence	-6841
▁examined	-6842
▁exciting	-6843
▁exercise	-6844
▁expected	-6845
▁expelled	-6846
▁expenses	-6847
▁eyesight	-6848
▁famished	-6849
▁fastball	-6850
▁february	-6851
▁forecast	-6852
▁forehead	-6853
▁formulas	-6854
▁freaking	-6855
▁funniest	-6856
▁galaxies	-6857
▁gambling	-6858
▁gathered	-6859
▁glitters	-6860
▁governor	-6861
▁graceful	-6862
▁guidance	-6863
▁hangover	-6864
▁hardware	-6865
▁haystack	-6866
▁hectares	-6867
▁homesick	-6868
▁hotcakes	-6869
▁humanity	-6870
▁hundreds	-6871
▁hurrying	-6872
▁ignorant	-6873
▁ignoring	-6874
▁improved	-6875
▁infected	-6876
▁informed	-6877
▁insisted	-6878
▁insulted	-6879
▁intended	-6880
▁internal	-6881
▁jacksons	-6882
▁kelantan	-6883
▁knitting	-6884
▁knocking	-6885
▁lipstick	-6886
▁listener	-6887
▁lunchbox	-6888
▁maintain	-6889
▁majority	-6890
▁malaysia	-6891
▁marrying	-6892
▁mattered	-6893
▁meanings	-6894
▁meantime	-6895
▁measured	-6896
▁mediterr	-6897
▁mentally	-6898
▁messages	-6899
▁mightier	-6900
▁miracles	-6901
▁molecule	-6902
▁movement	-6903
▁muhammad	-6904
▁muscular	-6905
▁musician	-6906
▁napoleon	-6907
▁northern	-6908
▁nowadays	-6909
▁obsessed	-6910
▁obtained	-6911
▁occurred	-6912
▁officers	-6913
▁operates	-6914
▁ophthalm	-6915
▁opinions	-6916
▁opposite	-6917
▁optimism	-6918
▁organize	-6919
▁oriental	-6920
▁original	-6921
▁outdoors	-6922
▁overcast	-6923
▁overdose	-6924
▁overseas	-6925
▁overtime	-6926
▁pancakes	-6927
▁pancreas	-6928
▁pandemic	-6929
▁paradise	-6930
▁parallel	-6931
▁paranoid	-6932
▁patience	-6933
▁patients	-6934
▁peculiar	-6935
▁pharmacy	-6936
▁philosop	-6937
▁politely	-6938
▁polluted	-6939
▁portions	-6940
▁potatoes	-6941
▁praising	-6942
▁precious	-6943
▁presents	-6944
▁priority	-6945
▁produces	-6946
▁products	-6947
▁programs	-6948
▁promises	-6949
▁properly	-6950
▁puzzling	-6951
▁quarters	-6952
▁raincoat	-6953
▁reaction	-6954
▁realizes	-6955
▁recorder	-6956
▁regarded	-6957
▁register	-6958
▁regulate	-6959
▁rejected	-6960
▁released	-6961
▁relieved	-6962
▁reported	-6963
▁requires	-6964
▁resigned	-6965
▁resolved	-6966
▁revealed	-6967
▁rewarded	-6968
▁salesman	-6969
▁scarcely	-6970
▁scorpion	-6971
▁scotland	-6972
▁scrabble	-6973
▁screwdri	-6974
▁searched	-6975
▁seatbelt	-6976
▁separate	-6977
▁shepherd	-6978
▁shipping	-6979
▁shivered	-6980
▁shoelace	-6981
▁shortage	-6982
▁shortest	-6983
▁shuffled	-6984
▁siblings	-6985
▁silently	-6986
▁situated	-6987
▁sketches	-6988
▁slightly	-6989
▁slippery	-6990
▁smoothly	-6991
▁smuggler	-6992
▁snacking	-6993
▁sociable	-6994
▁software	-6995
▁spelling	-6996
▁spinning	-6997
▁spitting	-6998
▁squirrel	-6999
▁stitches	-7000
▁struggle	-7001
▁stutters	-7002
▁suggests	-7003
▁sunbathe	-7004
▁suppress	-7005
▁sweating	-7006
▁sweeping	-7007
▁sympathy	-7008
▁talented	-7009
▁teachers	-7010
▁teenager	-7011
▁tempered	-7012
▁tendency	-7013
▁terminal	-7014
▁thailand	-7015
▁theories	-7016
▁thrilled	-7017
▁tolerate	-7018
▁tracking	-7019
▁training	-7020
▁transmit	-7021
▁treasure	-7022
▁triangle	-7023
▁unlocked	-7024
▁unsolved	-7025
▁unstable	-7026
▁weekdays	-7027
▁weekends	-7028
▁welcomed	-7029
▁whenever	-7030
▁whistled	-7031
▁withdraw	-7032
▁worsened	-7033
▁zamenhof	-7034
▁abdominal	-7035
▁accordion	-7036
▁acquitted	-7037
▁addressed	-7038
▁advertise	-7039
▁agreement	-7040
▁airplanes	-7041
▁allegedly	-7042
▁allergies	-7043
▁alligator	-7044
▁aluminium	-7045
▁anchovies	-7046
▁answering	-7047
▁argentina	-7048
▁ascertain	-7049
▁assembled	-7050
▁astrophys	-7051
▁attempted	-7052
▁attentive	-7053
▁bargained	-7054
▁bartender	-7055
▁bathrooms	-7056
▁biohazard	-7057
▁birthmark	-7058
▁bonaparte	-7059
▁bookshelf	-7060
▁brightest	-7061
▁butterfly	-7062
▁cafeteria	-7063
▁cambridge	-7064
▁caucasian	-7065
▁celebrate	-7066
▁challenge	-7067
▁character	-7068
▁civilians	-7069
▁civilized	-7070
▁cluttered	-7071
▁cockroach	-7072
▁committee	-7073
▁commotion	-7074
▁communism	-7075
▁companies	-7076
▁condemned	-7077
▁confessed	-7078
▁confucius	-7079
▁confusing	-7080
▁connected	-7081
▁consulate	-7082
▁consuming	-7083
▁copyright	-7084
▁correctly	-7085
▁courteous	-7086
▁criminals	-7087
▁deceiving	-7088
▁decreased	-7089
▁delighted	-7090
▁democracy	-7091
▁dependent	-7092
▁desperate	-7093
▁destinies	-7094
▁detergent	-7095
▁digestive	-7096
▁dinosaurs	-7097
▁direction	-7098
▁disasters	-7099
▁discovery	-7100
▁dissolves	-7101
▁documents	-7102
▁dragonfly	-7103
▁drinkable	-7104
▁earthworm	-7105
▁easygoing	-7106
▁efficient	-7107
▁employees	-7108
▁employers	-7109
▁escalator	-7110
▁evolution	-7111
▁exercises	-7112
▁existence	-7113
▁explosion	-7114
▁finishing	-7115
▁fireworks	-7116
▁fisherman	-7117
▁foolishly	-7118
▁foreigner	-7119
▁forgetful	-7120
▁fortunate	-7121
▁fractured	-7122
▁francisco	-7123
▁functions	-7124
▁gardeners	-7125
▁gentlemen	-7126
▁groceries	-7127
▁guarantee	-7128
▁guestbook	-7129
▁guitarist	-7130
▁halloween	-7131
▁hamburger	-7132
▁hampshire	-7133
▁headscarf	-7134
▁himalayan	-7135
▁hiroshima	-7136
▁hollywood	-7137
▁honeymoon	-7138
▁humiliate	-7139
▁identical	-7140
▁idiomatic	-7141
▁illegible	-7142
▁illogical	-7143
▁imagining	-7144
▁imitation	-7145
▁including	-7146
▁incorrect	-7147
▁increased	-7148
▁indicates	-7149
▁infection	-7150
▁influence	-7151
▁interests	-7152
▁interrupt	-7153
▁intrigued	-7154
▁investing	-7155
▁irritated	-7156
▁kagoshima	-7157
▁knowledge	-7158
▁landmarks	-7159
▁ludicrous	-7160
▁marriages	-7161
▁medicines	-7162
▁mentioned	-7163
▁moonlight	-7164
▁mushrooms	-7165
▁nightmare	-7166
▁objection	-7167
▁operation	-7168
▁orangutan	-7169
▁ostriches	-7170
▁otherwise	-7171
▁outsiders	-7172
▁outskirts	-7173
▁overheard	-7174
▁oversized	-7175
▁pacemaker	-7176
▁paragraph	-7177
▁patiently	-7178
▁pepperoni	-7179
▁permanent	-7180
▁perplexed	-7181
▁piggyback	-7182
▁pineapple	-7183
▁pointless	-7184
▁poisonous	-7185
▁policemen	-7186
▁powerless	-7187
▁practical	-7188
▁practiced	-7189
▁precisely	-7190
▁preparing	-7191
▁preserved	-7192
▁prettiest	-7193
▁principal	-7194
▁principle	-7195
▁prisoners	-7196
▁procedure	-7197
▁professor	-7198
▁promotion	-7199
▁proofread	-7200
▁published	-7201
▁punctured	-7202
▁punishing	-7203
▁realistic	-7204
▁reforming	-7205
▁regulated	-7206
▁rejection	-7207
▁relations	-7208
▁remembers	-7209
▁reputable	-7210
▁resembles	-7211
▁respected	-7212
▁satellite	-7213
▁saturdays	-7214
▁scattered	-7215
▁scorpions	-7216
▁scrambled	-7217
▁scratches	-7218
▁searching	-7219
▁secretary	-7220
▁separated	-7221
▁separates	-7222
▁september	-7223
▁shoulders	-7224
▁signature	-7225
▁snowstorm	-7226
▁spaghetti	-7227
▁specialty	-7228
▁spreading	-7229
▁squatting	-7230
▁staggered	-7231
▁starbucks	-7232
▁stiffness	-7233
▁stretched	-7234
▁structure	-7235
▁struggled	-7236
▁sunflower	-7237
▁sunscreen	-7238
▁surprises	-7239
▁surrender	-7240
▁suspicion	-7241
▁sweetener	-7242
▁synthetic	-7243
▁talkative	-7244
▁temporary	-7245
▁terrified	-7246
▁terrorist	-7247
▁toothpick	-7248
▁traveling	-7249
▁treasures	-7250
▁treatment	-7251
▁umbrellas	-7252
▁unethical	-7253
▁universal	-7254
▁unplugged	-7255
▁untouched	-7256
▁valentine	-7257
▁vegetable	-7258
▁wednesday	-7259
▁windmills	-7260
▁wondering	-7261
▁wrestling	-7262
ontrollable	-7263
▁abominable	-7264
▁accountant	-7265
▁afternoons	-7266
▁altogether	-7267
▁ambassador	-7268
▁anticipate	-7269
▁apparently	-7270
▁approached	-7271
▁artificial	-7272
▁attempting	-7273
▁attractive	-7274
▁attributes	-7275
▁australian	-7276
▁babysitter	-7277
▁believable	-7278
▁bookkeeper	-7279
▁camouflage	-7280
▁celebrated	-7281
▁celebrates	-7282
▁characters	-7283
▁chocolates	-7284
▁chopsticks	-7285
▁cigarettes	-7286
▁completing	-7287
▁compliment	-7288
▁compromise	-7289
▁conclusion	-7290
▁concussion	-7291
▁conference	-7292
▁constantly	-7293
▁containers	-7294
▁continuing	-7295
▁correction	-7296
▁courageous	-7297
▁diagonally	-7298
▁difficulty	-7299
▁discussing	-7300
▁distressed	-7301
▁disturbing	-7302
▁earthlings	-7303
▁electrical	-7304
▁electronic	-7305
▁encouraged	-7306
▁engagement	-7307
▁englishmen	-7308
▁excavation	-7309
▁exercising	-7310
▁expedition	-7311
▁explaining	-7312
▁expression	-7313
▁extinguish	-7314
▁fingernail	-7315
▁flashlight	-7316
▁fluctuates	-7317
▁footprints	-7318
▁forgetting	-7319
▁generation	-7320
▁goalkeeper	-7321
▁graduation	-7322
▁hypothesis	-7323
▁impression	-7324
▁inaccurate	-7325
▁industrial	-7326
▁inequality	-7327
▁inevitable	-7328
▁influenced	-7329
▁inspection	-7330
▁instrument	-7331
▁interviews	-7332
▁intolerant	-7333
▁javascript	-7334
▁maintained	-7335
▁manuscript	-7336
▁meningitis	-7337
▁microscope	-7338
▁miniskirts	-7339
▁multiplied	-7340
▁nonplussed	-7341
▁nonsmokers	-7342
▁nosebleeds	-7343
▁nutritious	-7344
▁occupation	-7345
▁overpriced	-7346
▁passengers	-7347
▁penicillin	-7348
▁photogenic	-7349
▁politician	-7350
▁popularity	-7351
▁production	-7352
▁programmer	-7353
▁pronounced	-7354
▁questioned	-7355
▁reconsider	-7356
▁recovering	-7357
▁relocating	-7358
▁repeatedly	-7359
▁reputation	-7360
▁revolution	-7361
▁rhythmical	-7362
▁scientific	-7363
▁scientists	-7364
▁secondhand	-7365
▁skyscraper	-7366
▁specialist	-7367
▁speechless	-7368
▁splattered	-7369
▁stuttering	-7370
▁subjective	-7371
▁suffocated	-7372
▁suggesting	-7373
▁surrounded	-7374
▁sweetheart	-7375
▁symbolizes	-7376
▁tablecloth	-7377
▁telephoned	-7378
▁terminated	-7379
▁threatened	-7380
▁traditions	-7381
▁translator	-7382
▁unattended	-7383
▁undercover	-7384
▁unfinished	-7385
▁unorthodox	-7386
▁verifiable	-7387
▁vietnamese	-7388
▁volleyball	-7389
▁washington	-7390
▁waterproof	-7391
▁wheelchair	-7392
▁yourselves	-7393
▁advertising	-7394
▁affirmative	-7395
▁agriculture	-7396
▁application	-7397
▁appreciated	-7398
▁appreciates	-7399
▁arrangement	-7400
▁assignments	-7401
▁atmospheric	-7402
▁brandenburg	-7403
▁businessman	-7404
▁caterpillar	-7405
▁centimeters	-7406
▁chimpanzees	-7407
▁cleanliness	-7408
▁coincidence	-7409
▁conditioned	-7410
▁conferences	-7411
▁consecutive	-7412
▁contributed	-7413
▁cooperation	-7414
▁corrections	-7415
▁counterfeit	-7416
▁credibility	-7417
▁crystalline	-7418
▁daydreaming	-7419
▁declaration	-7420
▁destination	-7421
▁differently	-7422
▁disciplined	-7423
▁discouraged	-7424
▁disposition	-7425
▁disregarded	-7426
▁dumbfounded	-7427
▁educational	-7428
▁encouraging	-7429
▁examination	-7430
▁explanation	-7431
▁expressions	-7432
▁fascinating	-7433
▁fingernails	-7434
▁frantically	-7435
▁girlfriends	-7436
▁grammatical	-7437
▁hairdresser	-7438
▁hitchhiking	-7439
▁humiliation	-7440
▁hummingbird	-7441
▁imagination	-7442
▁inhabitants	-7443
▁inheritance	-7444
▁inseparable	-7445
▁interfering	-7446
▁interpreter	-7447
▁interviewed	-7448
▁intimidated	-7449
▁inventories	-7450
▁investigate	-7451
▁negotiation	-7452
▁opportunity	-7453
▁permissible	-7454
▁personality	-7455
▁photocopied	-7456
▁photography	-7457
▁picturesque	-7458
▁pocketknife	-7459
▁politicians	-7460
▁pomegranate	-7461
▁prematurely	-7462
▁proposition	-7463
▁rainforests	-7464
▁raspberries	-7465
▁recommended	-7466
▁reservation	-7467
▁restaurants	-7468
▁scholarship	-7469
▁segregation	-7470
▁shoplifting	-7471
▁stepbrother	-7472
▁subscribing	-7473
▁sympathetic	-7474
▁traditional	-7475
▁trustworthy	-7476
▁unavoidable	-7477
▁undercooked	-7478
▁unfortunate	-7479
▁unrealistic	-7480
▁vegetarians	-7481
▁accomplished	-7482
▁announcement	-7483
▁astrological	-7484
▁authenticity	-7485
▁backpedaling	-7486
▁birdwatching	-7487
▁bodybuilding	-7488
▁coincidences	-7489
▁congratulate	-7490
▁continuously	-7491
▁disappearing	-7492
▁dissatisfied	-7493
▁enthusiastic	-7494
▁entrepreneur	-7495
▁examinations	-7496
▁grandparents	-7497
▁handkerchief	-7498
▁incompatible	-7499
▁insufficient	-7500
▁intersection	-7501
▁investigated	-7502
▁kindergarten	-7503
▁manufactures	-7504
▁memorization	-7505
▁mysteriously	-7506
▁participated	-7507
▁perseverance	-7508
▁philosophers	-7509
▁psychiatrist	-7510
▁reincarnated	-7511
▁satisfactory	-7512
▁screwdrivers	-7513
▁snowboarding	-7514
▁subordinates	-7515
▁surroundings	-7516
▁thanksgiving	-7517
▁translations	-7518
▁uninterested	-7519
▁unreasonable	-7520
▁veterinarian	-7521
▁volunteering	-7522
▁carbohydrates	-7523
▁cheeseburgers	-7524
▁communication	-7525
▁conscientious	-7526
▁criminologist	-7527
▁experimenting	-7528
▁irresponsible	-7529
▁mediterranean	-7530
▁misunderstood	-7531
▁uncomfortable	-7532
▁unpredictable	-7533
▁astrophysicist	-7534
▁constellations	-7535
▁mountaineering	-7536
▁transportation	-7537
▁uncontrollable	-7538
▁wholeheartedly	-7539
▁congratulations	-7540
▁ophthalmologist	-7541
01	-7542
16	-7543
17	-7544
18	-7545
19	-7546
20	-7547
22	-7548
25	-7549
26	-7550
28	-7551
30	-7552
35	-7553
40	-7554
50	-7555
73	-7556
87	-7557
92	-7558
99	-7559
ah	-7560
aj	-7561
au	-7562
ba	-7563
bi	-7564
bj	-7565
bv	-7566
ca	-7567
cq	-7568
cs	-7569
cu	-7570
db	-7571
dc	-7572
df	-7573
dg	-7574
dh	-7575
di	-7576
dk	-7577
dl	-7578
dm	-7579
dn	-7580
do	-7581
dp	-7582
dv	-7583
dw	-7584
eb	-7585
ec	-7586
ef	-7587
eh	-7588
ei	-7589
eq	-7590
ex	-7591
fi	-7592
fo	-7593
fr	-7594
ga	-7595
gb	-7596
gi	-7597
gk	-7598
gs	-7599
11	-7600
12	-7601
21	-7602
24	-7603
42	-7604
60	-7605
71	-7606
80	-7607
82	-7608
83	-7609
90	-7610
91	-7611
94	-7612
96	-7613
97	-7614
bw	-7615
eo	-7616
gt	-7617
gu	-7618
hb	-7619
hd	-7620
hf	-7621
hh	-7622
hm	-7623
hp	-7624
hq	-7625
hr	-7626
hs	-7627
hu	-7628
hw	-7629
ii	-7630
ik	-7631
iq	-7632
iu	-7633
ix	-7634
ja	-7635
je	-7636
ju	-7637
kb	-7638
kd	-7639
kf	-7640
kh	-7641
ki	-7642
kk	-7643
kl	-7644
km	-7645
kp	-7646
kr	-7647
ku	-7648
la	-7649
lb	-7650
lm	-7651
lp	-7652
lr	-7653
lt	-7654
lv	-7655
lw	-7656
me	-7657
mf	-7658
mi	-7659
mn	-7660
mo	-7661
ms	-7662
mt	-7663
mu	-7664
my	-7665
nc	-7666
nd	-7667
nf	-7668
nh	-7669
ni	-7670
nj	-7671
nk	-7672
nl	-7673
nm	-7674
no	-7675
np	-7676
nu	-7677
nv	-7678
nx	-7679
oa	-7680
oe	-7681
of	-7682
oh	-7683
oi	-7684
oj	-7685
oy	-7686
oz	-7687
pc	-7688
pd	-7689
pf	-7690
pi	-7691
pk	-7692
po	-7693
pu	-7694
py	-7695
rb	-7696
rc	-7697
rd	-7698
rf	-7699
bd	-7700
bf	-7701
bm	-7702
cd	-7703
cn	-7704
dj	-7705
ej	-7706
fn	-7707
gp	-7708
hl	-7709
lg	-7710
ln	-7711
mc	-7712
mr	-7713
nb	-7714
nr	-7715
nz	-7716
pb	-7717
rg	-7718
rh	-7719
rj	-7720
rk	-7721
rl	-7722
rn	-7723
rp	-7724
rr	-7725
rs	-7726
rt	-7727
rv	-7728
rw	-7729
sb	-7730
sd	-7731
sf	-7732
si	-7733
sk	-7734
sl	-7735
sm	-7736
sn	-7737
so	-7738
sq	-7739
su	-7740
tb	-7741
tc	-7742
td	-7743
tf	-7744
tk	-7745
tl	-7746
tm	-7747
tn	-7748
to	-7749
tp	-7750
tr	-7751
tv	-7752
tw	-7753
ua	-7754
uh	-7755
ui	-7756
uj	-7757
uo	-7758
uy	-7759
uz	-7760
va	-7761
vo	-7762
vu	-7763
vy	-7764
wa	-7765
wb	-7766
wf	-7767
wh	-7768
wi	-7769
wl	-7770
wm	-7771
wo	-7772
ws	-7773
wu	-7774
wy	-7775
xa	-7776
xc	-7777
xe	-7778
xf	-7779
xh	-7780
xi	-7781
xl	-7782
xp	-7783
xu	-7784
yb	-7785
yc	-7786
yd	-7787
yf	-7788
yg	-7789
yi	-7790
yl	-7791
ym	-7792
yo	-7793
yp	-7794
yr	-7795
yu	-7796
yw	-7797
zi	-7798
zl	-7799
zo	-7800
zu	-7801
▁0	-7802
▁q	-7803
▁u	-7804
▁x	-7805
000	-7806
800	-7807
aci	-7808
acl	-7809
ads	-7810
ahe	-7811
ais	-7812
ala	-7813
ale	-7814
alt	-7815
alu	-7816
anl	-7817
ann	-7818
anu	-7819
apo	-7820
ara	-7821
arc	-7822
ari	-7823
atc	-7824
ati	-7825
aul	-7826
aun	-7827
aus	-7828
awn	-7829
ayb	-7830
ayd	-7831
bid	-7832
bom	-7833
bor	-7834
bre	-7835
bus	-7836
cak	-7837
cal	-7838
cen	-7839
chb	-7840
chl	-7841
chn	-7842
cit	-7843
com	-7844
cot	-7845
cou	-7846
cre	-7847
cue	-7848
cur	-7849
dan	-7850
dar	-7851
dha	-7852
dow	-7853
dul	-7854
dve	-7855
eam	-7856
ean	-7857
ece	-7858
edn	-7859
eet	-7860
eha	-7861
ehe	-7862
emi	-7863
enb	-7864
enc	-7865
enl	-7866
eon	-7867
erd	-7868
erf	-7869
esd	-7870
esk	-7871
esn	-7872
eso	-7873
eta	-7874
eti	-7875
etk	-7876
fee	-7877
ffn	-7878
fid	-7879
fon	-7880
ftw	-7881
geb	-7882
gem	-7883
ggl	-7884
ghe	-7885
gis	-7886
gon	-7887
gor	-7888
gou	-7889
gul	-7890
gus	-7891
hab	-7892
hac	-7893
hak	-7894
hau	-7895
hay	-7896
haz	-7897
hea	-7898
heb	-7899
bal	-7900
bou	-7901
can	-7902
cas	-7903
cro	-7904
cti	-7905
din	-7906
dou	-7907
dre	-7908
eou	-7909
ere	-7910
fou	-7911
fre	-7912
giz	-7913
hav	-7914
hec	-7915
hee	-7916
hef	-7917
hei	-7918
hel	-7919
hem	-7920
heo	-7921
hep	-7922
hev	-7923
hey	-7924
him	-7925
hir	-7926
hit	-7927
hon	-7928
hou	-7929
hre	-7930
hro	-7931
hys	-7932
idg	-7933
idy	-7934
ien	-7935
ift	-7936
igg	-7937
igs	-7938
ilw	-7939
imc	-7940
ims	-7941
inf	-7942
inl	-7943
inn	-7944
iny	-7945
iou	-7946
ips	-7947
isc	-7948
isl	-7949
iti	-7950
jan	-7951
jin	-7952
jou	-7953
▁	-7954
e	-7955
t	-7956
o	-7957
i	-7958
a	-7959
s	-7960
n	-7961
h	-7962
r	-7963
l	-7964
.	-7965
d	-7966
m	-7967
y	-7968
u	-7969
w	-7970
c	-7971
g	-7972
f	-7973
p	-7974
b	-7975
k	-7976
v	-7977
?	-7978
,	-7979
j	-7980
x	-7981
z	-7982
q	-7983
!	-7984
0	-7985
2	-7986
3	-7987
1	-7988
8	-7989
:	-7990
9	-7991
5	-7992
4	-7993
6	-7994
7	-7995
