<pad>	0
<unk>	0
<s>	0
</s>	0
an	-0
▁.	-1
ak	-2
▁t	-3
▁m	-4
▁s	-5
er	-6
▁b	-7
▁k	-8
▁d	-9
en	-10
in	-11
ah	-12
ang	-13
ar	-14
ya	-15
▁p	-16
am	-17
at	-18
▁ak	-19
al	-20
▁di	-21
▁to	-22
ap	-23
em	-24
▁tom	-25
▁men	-26
▁aku	-27
un	-28
uk	-29
el	-30
▁ti	-31
it	-32
▁?	-33
▁se	-34
dak	-35
as	-36
▁tidak	-37
ad	-38
▁ber	-39
▁in	-40
▁kam	-41
ik	-42
▁l	-43
▁sa	-44
apa	-45
▁mem	-46
▁h	-47
▁y	-48
is	-49
nya	-50
▁yang	-51
itu	-52
▁saya	-53
▁kamu	-54
▁ke	-55
▁itu	-56
▁per	-57
▁ini	-58
▁dia	-59
us	-60
ih	-61
kan	-62
▁j	-63
▁ter	-64
gi	-65
ing	-66
ada	-67
um	-68
au	-69
▁apa	-70
ur	-71
▁meng	-72
il	-73
eng	-74
or	-75
ari	-76
akan	-77
▁memb	-78
ul	-79
on	-80
ir	-81
ukan	-82
▁r	-83
ek	-84
▁akan	-85
▁,	-86
ut	-87
alah	-88
▁an	-89
ai	-90
mu	-91
ung	-92
ud	-93
▁mel	-94
▁bis	-95
▁tah	-96
▁deng	-97
anya	-98
▁dengan	-99
ku	-100
▁ada	-101
orang	-102
▁bisa	-103
ana	-104
▁ap	-105
▁ing	-106
▁mer	-107
eb	-108
▁ba	-109
da	-110
ol	-111
▁c	-112
akah	-113
unt	-114
ita	-115
ja	-116
es	-117
▁mar	-118
uka	-119
ali	-120
ga	-121
ti	-122
▁unt	-123
▁untuk	-124
angan	-125
et	-126
unya	-127
▁har	-128
▁kita	-129
▁kami	-130
uh	-131
▁mary	-132
▁ingin	-133
▁ad	-134
▁pergi	-135
asa	-136
▁kau	-137
▁apakah	-138
▁tahu	-139
akukan	-140
alam	-141
▁sem	-142
▁n	-143
ihat	-144
udah	-145
ua	-146
▁adalah	-147
▁g	-148
▁seb	-149
▁anda	-150
up	-151
ama	-152
▁dari	-153
▁a	-154
ep	-155
ok	-156
▁sudah	-157
▁sed	-158
ara	-159
▁bah	-160
▁suka	-161
▁dan	-162
tu	-163
▁si	-164
ikan	-165
▁harus	-166
▁makan	-167
▁orang	-168
ob	-169
▁sep	-170
alu	-171
▁mas	-172
▁sek	-173
adi	-174
ong	-175
▁bel	-176
wa	-177
uat	-178
ingg	-179
▁la	-180
▁ban	-181
eka	-182
inya	-183
▁leb	-184
angat	-185
▁lebih	-186
▁sedang	-187
▁mereka	-188
▁sel	-189
ia	-190
▁melakukan	-191
ta	-192
▁terl	-193
▁ben	-194
▁sangat	-195
▁punya	-196
▁kem	-197
▁meny	-198
im	-199
▁rum	-200
ini	-201
elah	-202
▁mana	-203
inggal	-204
▁rumah	-205
yak	-206
▁sen	-207
▁sini	-208
uku	-209
amp	-210
▁dalam	-211
▁hari	-212
▁ko	-213
ca	-214
▁menc	-215
▁berb	-216
▁pada	-217
▁pern	-218
▁banyak	-219
▁benar	-220
▁melihat	-221
amb	-222
eh	-223
ant	-224
ent	-225
aj	-226
▁bert	-227
▁pernah	-228
jadi	-229
▁anak	-230
▁jangan	-231
▁bukan	-232
▁w	-233
erja	-234
annya	-235
id	-236
▁semua	-237
▁lagi	-238
▁tem	-239
apat	-240
▁siapa	-241
▁kali	-242
▁bahasa	-243
ain	-244
ab	-245
▁mend	-246
▁tahun	-247
▁mau	-248
ika	-249
▁pen	-250
▁baik	-251
▁bers	-252
▁seorang	-253
lah	-254
▁bag	-255
▁buku	-256
os	-257
ati	-258
▁bar	-259
ekerja	-260
asi	-261
▁pa	-262
▁masih	-263
▁telah	-264
▁!	-265
▁sat	-266
▁ses	-267
iri	-268
apan	-269
▁pr	-270
▁seper	-271
▁at	-272
cara	-273
▁kel	-274
▁belum	-275
uj	-276
▁hal	-277
ikir	-278
uar	-279
obil	-280
▁mobil	-281
ilik	-282
ata	-283
long	-284
▁kep	-285
▁saja	-286
▁ken	-287
▁member	-288
per	-289
uah	-290
oleh	-291
▁tolong	-292
▁ker	-293
▁berapa	-294
▁tinggal	-295
uc	-296
▁kal	-297
alan	-298
ib	-299
ajar	-300
atang	-301
oh	-302
ungk	-303
anc	-304
amu	-305
eg	-306
angk	-307
uang	-308
▁bi	-309
▁bes	-310
▁tiga	-311
int	-312
▁terb	-313
▁kalau	-314
tr	-315
ungg	-316
▁pul	-317
diri	-318
ot	-319
▁f	-320
angg	-321
▁wak	-322
ungkin	-323
▁memba	-324
arang	-325
dur	-326
▁berh	-327
▁membel	-328
ton	-329
▁tak	-330
mana	-331
▁satu	-332
ub	-333
main	-334
▁datang	-335
ima	-336
▁sebuah	-337
and	-338
▁min	-339
▁ay	-340
uatu	-341
▁lak	-342
aw	-343
arkan	-344
ju	-345
▁jam	-346
▁baru	-347
lu	-348
iku	-349
▁waktu	-350
atakan	-351
▁bahwa	-352
▁membuat	-353
▁mungkin	-354
▁seperti	-355
▁terlalu	-356
aik	-357
ulai	-358
▁mengh	-359
▁membeli	-360
iliki	-361
▁menjadi	-362
▁bos	-363
▁kec	-364
▁bagai	-365
aku	-366
anj	-367
▁kalian	-368
▁sesuatu	-369
▁memiliki	-370
▁sekarang	-371
emb	-372
▁bagaimana	-373
▁berk	-374
▁perlu	-375
▁sendiri	-376
▁salah	-377
▁tidur	-378
▁kes	-379
▁bermain	-380
▁mus	-381
si	-382
pat	-383
▁ser	-384
emu	-385
enang	-386
▁boleh	-387
▁pikir	-388
anmu	-389
epat	-390
▁kenapa	-391
▁dir	-392
▁kar	-393
icara	-394
olah	-395
▁minum	-396
▁belajar	-397
idup	-398
▁ket	-399
ilang	-400
▁kemb	-401
▁pert	-402
▁lakukan	-403
▁berbicara	-404
akit	-405
▁ayah	-406
▁laki	-407
▁hanya	-408
▁memper	-409
▁sekali	-410
hir	-411
kah	-412
ancis	-413
unggu	-414
▁uang	-415
▁selalu	-416
uga	-417
utuh	-418
▁seh	-419
▁mulai	-420
af	-421
caya	-422
eber	-423
▁dib	-424
▁mendeng	-425
▁terjadi	-426
isi	-427
▁sama	-428
▁kapan	-429
▁malam	-430
api	-431
▁samp	-432
▁tent	-433
▁dapat	-434
▁prancis	-435
ahu	-436
▁ia	-437
inta	-438
▁juga	-439
▁boston	-440
▁masalah	-441
▁pekerja	-442
▁melakukannya	-443
ulis	-444
▁tet	-445
▁atas	-446
▁ters	-447
▁hidup	-448
▁teman	-449
ena	-450
oba	-451
akin	-452
▁kas	-453
▁tel	-454
▁kembali	-455
om	-456
▁sana	-457
▁sakit	-458
▁keluar	-459
▁bekerja	-460
▁bertemu	-461
▁tentang	-462
▁terlihat	-463
ed	-464
aran	-465
arin	-466
▁lalu	-467
▁jalan	-468
▁meninggal	-469
▁saat	-470
▁kemarin	-471
▁membaca	-472
ag	-473
▁kan	-474
ci	-475
gr	-476
pi	-477
▁keb	-478
▁pad	-479
▁ma	-480
▁bang	-481
▁seti	-482
▁sebel	-483
▁pulang	-484
antu	-485
pada	-486
▁pun	-487
▁mari	-488
▁merasa	-489
▁daripada	-490
▁air	-491
▁setiap	-492
▁sebelum	-493
arnya	-494
▁beber	-495
▁tangan	-496
▁beberapa	-497
uru	-498
▁dep	-499
▁pin	-500
▁sekolah	-501
▁menunggu	-502
▁ib	-503
▁lama	-504
▁terk	-505
▁karena	-506
okt	-507
umu	-508
▁sampai	-509
▁senang	-510
ew	-511
eda	-512
era	-513
▁as	-514
▁kak	-515
ambil	-516
▁jika	-517
▁besar	-518
▁mengg	-519
na	-520
ulan	-521
▁cuk	-522
▁kasih	-523
▁bilang	-524
▁membantu	-525
unj	-526
akai	-527
daku	-528
▁mat	-529
usnya	-530
▁berp	-531
▁menang	-532
ba	-533
awat	-534
▁kuc	-535
uanya	-536
▁tert	-537
emukan	-538
▁mengapa	-539
aha	-540
jing	-541
▁huj	-542
▁tan	-543
▁depan	-544
▁yakin	-545
▁kucing	-546
ac	-547
ian	-548
atan	-549
uduk	-550
▁dua	-551
▁pan	-552
▁pas	-553
▁pem	-554
▁anjing	-555
▁selama	-556
gris	-557
▁keh	-558
▁pes	-559
ingin	-560
▁lain	-561
▁besok	-562
▁tempat	-563
▁inggris	-564
uda	-565
wab	-566
▁me	-567
enti	-568
ukul	-569
▁berj	-570
▁diri	-571
pa	-572
eri	-573
▁lup	-574
▁pagi	-575
▁duduk	-576
▁keret	-577
▁mengen	-578
▁katakan	-579
▁menemukan	-580
auh	-581
arik	-582
unia	-583
▁kur	-584
▁pel	-585
aling	-586
▁cukup	-587
▁kepada	-588
▁berkata	-589
▁berhenti	-590
uan	-591
ekor	-592
▁jep	-593
▁sur	-594
▁dunia	-595
▁jepang	-596
▁terima	-597
uran	-598
▁seg	-599
inggu	-600
▁kamar	-601
▁bisakah	-602
▁mencoba	-603
▁memberit	-604
▁2	-605
car	-606
alia	-607
arah	-608
epon	-609
tinya	-610
▁kota	-611
uangan	-612
▁panas	-613
esa	-614
tak	-615
▁en	-616
utup	-617
▁dim	-618
▁sej	-619
kannya	-620
▁akhir	-621
▁ruangan	-622
ind	-623
unuh	-624
▁angg	-625
▁berl	-626
▁peng	-627
angkat	-628
▁bulan	-629
▁pukul	-630
▁takut	-631
▁makanan	-632
elas	-633
ulit	-634
urun	-635
▁neg	-636
▁sehar	-637
▁menger	-638
▁percaya	-639
▁berenang	-640
ec	-641
yi	-642
aan	-643
ustr	-644
▁bur	-645
▁lap	-646
▁jauh	-647
▁lupa	-648
▁mati	-649
▁bagus	-650
▁hujan	-651
▁masuk	-652
▁menya	-653
▁sering	-654
▁pekerjaan	-655
▁seharusnya	-656
od	-657
emp	-658
ulu	-659
ubah	-660
▁set	-661
ahkan	-662
ambat	-663
inggi	-664
▁maaf	-665
anjang	-666
unakan	-667
▁kecil	-668
▁semuanya	-669
gil	-670
▁ja	-671
abis	-672
amat	-673
▁ked	-674
▁tua	-675
▁atau	-676
asanya	-677
▁austr	-678
▁harap	-679
▁berada	-680
▁menulis	-681
▁australia	-682
▁is	-683
okok	-684
▁cepat	-685
▁lihat	-686
utuhkan	-687
▁bangun	-688
▁mendengar	-689
▁st	-690
ahui	-691
apun	-692
ikit	-693
ikut	-694
▁man	-695
ampir	-696
ohong	-697
▁luar	-698
▁meja	-699
▁surat	-700
▁ketika	-701
▁sedikit	-702
jam	-703
yan	-704
arna	-705
asil	-706
usia	-707
▁baw	-708
▁cer	-709
▁dit	-710
▁hati	-711
▁pend	-712
▁tiba	-713
▁pintu	-714
▁menyel	-715
▁padaku	-716
▁padamu	-717
▁tetapi	-718
▁memberi	-719
buk	-720
ebut	-721
iswa	-722
▁dis	-723
antai	-724
okter	-725
ulang	-726
▁berd	-727
▁berg	-728
▁tadi	-729
▁siang	-730
▁kereta	-731
▁minggu	-732
▁denganmu	-733
▁menangis	-734
▁mengatakan	-735
▁sepertinya	-736
▁1	-737
agi	-738
enc	-739
▁ga	-740
aman	-741
▁gun	-742
▁tok	-743
▁guru	-744
▁merah	-745
▁tepat	-746
▁dokter	-747
▁menget	-748
▁seekor	-749
▁bersama	-750
op	-751
sa	-752
▁al	-753
▁ya	-754
atuh	-755
ikah	-756
ungi	-757
utus	-758
▁beg	-759
▁sus	-760
▁apel	-761
▁nama	-762
▁pint	-763
▁jawab	-764
▁sepeda	-765
▁merokok	-766
▁kon	-767
▁mur	-768
▁cara	-769
▁marah	-770
▁sibuk	-771
esaikan	-772
▁hampir	-773
▁pertanya	-774
ekat	-775
itar	-776
utmu	-777
yang	-778
▁jen	-779
▁nam	-780
asiun	-781
▁kata	-782
▁rasa	-783
▁milik	-784
▁musim	-785
▁kesalah	-786
▁stasiun	-787
▁mengambil	-788
▁memberitah	-789
wal	-790
▁ku	-791
anku	-792
ilih	-793
ukai	-794
▁kopi	-795
▁oleh	-796
▁lapar	-797
▁gunung	-798
▁terlambat	-799
ej	-800
ra	-801
uri	-802
▁ka	-803
ohon	-804
tuju	-805
▁dip	-806
▁mah	-807
▁nya	-808
akhir	-809
▁dulu	-810
▁ramb	-811
▁siap	-812
▁keras	-813
▁musik	-814
▁turun	-815
▁anggur	-816
▁peremp	-817
▁setuju	-818
▁biasanya	-819
▁membutuhkan	-820
▁fil	-821
antik	-822
unjuk	-823
▁muda	-824
▁mengi	-825
▁begitu	-826
▁paling	-827
▁berikan	-828
▁memakan	-829
▁mendapat	-830
▁tersebut	-831
ev	-832
ala	-833
dah	-834
▁ag	-835
▁dil	-836
otong	-837
▁sese	-838
▁menit	-839
▁apapun	-840
▁segera	-841
▁tinggi	-842
▁seseorang	-843
▁sebelumnya	-844
▁mendengarkan	-845
aham	-846
bang	-847
▁bir	-848
▁lah	-849
▁sar	-850
entar	-851
usaha	-852
▁adik	-853
▁istr	-854
▁bawah	-855
▁butuh	-856
▁kotak	-857
▁menur	-858
▁pasti	-859
▁rapat	-860
▁ayahku	-861
▁berpikir	-862
▁bersalah	-863
▁berbohong	-864
▁pertanyaan	-865
▁3	-866
ira	-867
orm	-868
pun	-869
▁pol	-870
ingat	-871
kanmu	-872
onton	-873
▁bagi	-874
▁bung	-875
▁lang	-876
▁sung	-877
▁mener	-878
▁pacar	-879
▁ulang	-880
▁dingin	-881
▁memakai	-882
▁menikah	-883
▁rumahku	-884
▁berjalan	-885
▁mengerti	-886
▁perempuan	-887
atu	-888
▁em	-889
▁kr	-890
agia	-891
aiki	-892
▁gar	-893
▁kul	-894
▁pis	-895
▁sal	-896
▁berc	-897
▁film	-898
▁ikan	-899
▁toko	-900
▁bantu	-901
▁bunga	-902
▁menel	-903
▁tetap	-904
ilangan	-905
▁sungai	-906
▁bahagia	-907
▁meminta	-908
▁satunya	-909
▁menonton	-910
aks	-911
imu	-912
ola	-913
uci	-914
▁su	-915
▁um	-916
anti	-917
esai	-918
▁kom	-919
▁put	-920
▁ten	-921
anjut	-922
▁awal	-923
▁kant	-924
▁berat	-925
▁cinta	-926
▁ingat	-927
▁kelas	-928
▁memas	-929
▁siswa	-930
▁sulit	-931
▁terus	-932
▁berubah	-933
▁menarik	-934
▁mencari	-935
▁selamat	-936
▁bolehkah	-937
▁membunuh	-938
▁sebentar	-939
▁melihatnya	-940
▁menggunakan	-941
▁menyelesaikan	-942
▁v	-943
uma	-944
yar	-945
enal	-946
▁menj	-947
encana	-948
enting	-949
▁diper	-950
▁kakak	-951
▁memer	-952
▁pakai	-953
▁pohon	-954
▁puluh	-955
▁seben	-956
▁tanpa	-957
▁padanya	-958
▁pertama	-959
▁selesai	-960
▁setelah	-961
▁pintunya	-962
▁kehilangan	-963
▁sebenarnya	-964
und	-965
▁am	-966
▁tu	-967
anda	-968
jual	-969
▁kab	-970
▁kun	-971
ganya	-972
hawat	-973
kanku	-974
▁jadi	-975
▁dekat	-976
▁memin	-977
hawatir	-978
▁cantik	-979
▁penting	-980
▁telepon	-981
▁terakhir	-982
▁membuatku	-983
uli	-984
▁20	-985
▁so	-986
ahan	-987
ampu	-988
atur	-989
▁dik	-990
▁sil	-991
erika	-992
▁bern	-993
▁enam	-994
▁membi	-995
▁menol	-996
▁sebaik	-997
▁amerika	-998
▁berhasil	-999
▁bertanya	-1000
▁tertarik	-1001
▁dengannya	-1002
▁kesalahan	-1003
▁menelepon	-1004
▁memberikan	-1005
tor	-1006
uta	-1007
abuk	-1008
elak	-1009
erah	-1010
ober	-1011
▁kos	-1012
▁ped	-1013
ingga	-1014
warna	-1015
▁buah	-1016
▁memp	-1017
▁terh	-1018
elapan	-1019
▁lahir	-1020
▁menja	-1021
▁nanti	-1022
▁lantai	-1023
▁berwarna	-1024
▁menyukai	-1025
▁berangkat	-1026
▁sebaiknya	-1027
▁sendirian	-1028
▁mengetahui	-1029
iz	-1030
ov	-1031
ide	-1032
udi	-1033
usi	-1034
▁es	-1035
▁ng	-1036
adio	-1037
ekan	-1038
gila	-1039
odoh	-1040
utan	-1041
▁buk	-1042
▁ibu	-1043
▁kor	-1044
▁okt	-1045
▁par	-1046
▁enak	-1047
▁kira	-1048
▁perm	-1049
▁tapi	-1050
▁benci	-1051
▁mabuk	-1052
▁putih	-1053
▁radio	-1054
▁tutup	-1055
▁barang	-1056
▁burung	-1057
▁rambut	-1058
▁berlari	-1059
▁biarkan	-1060
▁membant	-1061
▁oktober	-1062
▁pesawat	-1063
▁sekitar	-1064
▁mengajar	-1065
▁menurutmu	-1066
av	-1067
ium	-1068
▁ro	-1069
orit	-1070
▁nov	-1071
angka	-1072
baiki	-1073
intas	-1074
▁buka	-1075
▁semp	-1076
▁seri	-1077
▁terj	-1078
▁ambil	-1079
▁buruk	-1080
▁mudah	-1081
▁pesta	-1082
▁pilih	-1083
▁tulis	-1084
▁hingga	-1085
▁kosong	-1086
▁bercanda	-1087
▁meminjam	-1088
▁mengenal	-1089
▁mengingat	-1090
▁mempercaya	-1091
00	-1092
del	-1093
imp	-1094
ist	-1095
put	-1096
tim	-1097
▁gi	-1098
arap	-1099
asan	-1100
asia	-1101
engk	-1102
etak	-1103
uluh	-1104
▁hit	-1105
▁kup	-1106
▁rah	-1107
adang	-1108
ajari	-1109
ikuti	-1110
udara	-1111
▁bint	-1112
▁bola	-1113
▁gila	-1114
▁lima	-1115
▁nasi	-1116
▁para	-1117
▁pemb	-1118
▁pria	-1119
▁situ	-1120
▁susu	-1121
ingung	-1122
▁bodoh	-1123
▁kerja	-1124
▁lelah	-1125
▁mahal	-1126
▁senin	-1127
▁telev	-1128
▁tenis	-1129
▁terta	-1130
abiskan	-1131
elakaan	-1132
▁berdua	-1133
▁bicara	-1134
▁kanada	-1135
▁kantor	-1136
▁langit	-1137
▁lintas	-1138
▁negeri	-1139
▁polisi	-1140
▁bintang	-1141
▁mengunj	-1142
▁sepuluh	-1143
▁silakan	-1144
▁terbaik	-1145
▁menunjuk	-1146
▁sepanjang	-1147
▁kecelakaan	-1148
▁meninggalkan	-1149
ani	-1150
eks	-1151
ket	-1152
uju	-1153
yum	-1154
emat	-1155
iasa	-1156
▁fav	-1157
▁hot	-1158
▁tim	-1159
ahasa	-1160
jakan	-1161
▁naik	-1162
▁pand	-1163
alikan	-1164
atikan	-1165
upakan	-1166
▁indah	-1167
▁jatuh	-1168
▁kepad	-1169
▁menan	-1170
▁minta	-1171
▁murah	-1172
▁novel	-1173
▁salju	-1174
▁tangg	-1175
▁kurang	-1176
▁memang	-1177
▁mengel	-1178
▁negara	-1179
▁sehari	-1180
▁berdiri	-1181
▁favorit	-1182
▁manusia	-1183
▁menjual	-1184
▁namanya	-1185
▁sarapan	-1186
▁menerima	-1187
▁pendapat	-1188
▁terkenal	-1189
▁berbahasa	-1190
▁menghabiskan	-1191
ip	-1192
aja	-1193
kus	-1194
las	-1195
oto	-1196
▁ar	-1197
acet	-1198
adap	-1199
agai	-1200
alas	-1201
epas	-1202
ilah	-1203
▁ayo	-1204
▁bad	-1205
▁cua	-1206
▁dag	-1207
▁tas	-1208
▁teh	-1209
ambar	-1210
angga	-1211
engah	-1212
engar	-1213
yakan	-1214
▁alam	-1215
▁aneh	-1216
▁baca	-1217
▁coba	-1218
▁pers	-1219
▁terd	-1220
alanya	-1221
aranya	-1222
undang	-1223
▁harga	-1224
▁hotel	-1225
▁jelas	-1226
▁kursi	-1227
▁tahan	-1228
▁taman	-1229
carakan	-1230
utuskan	-1231
▁jendel	-1232
▁mengem	-1233
▁secara	-1234
▁delapan	-1235
▁kemacet	-1236
▁semalam	-1237
▁tertawa	-1238
▁berusaha	-1239
▁denganku	-1240
▁televisi	-1241
ug	-1242
jah	-1243
tas	-1244
▁30	-1245
▁tv	-1246
▁wa	-1247
onom	-1248
ukah	-1249
ukis	-1250
▁ant	-1251
▁gel	-1252
▁ide	-1253
▁jer	-1254
▁lib	-1255
▁pet	-1256
ahaya	-1257
ancar	-1258
apkan	-1259
eriak	-1260
lakan	-1261
uhnya	-1262
yanyi	-1263
▁agak	-1264
▁buta	-1265
▁main	-1266
▁roti	-1267
asakan	-1268
asaran	-1269
▁belas	-1270
▁ibuku	-1271
▁murid	-1272
▁warna	-1273
timbang	-1274
▁daging	-1275
▁kertas	-1276
▁mengec	-1277
▁menyad	-1278
▁saling	-1279
▁sepatu	-1280
▁tunggu	-1281
▁memasak	-1282
▁membuka	-1283
▁mencuri	-1284
▁pelajar	-1285
▁rahasia	-1286
▁inginkan	-1287
▁menjawab	-1288
▁berteriak	-1289
▁kemacetan	-1290
▁memutuskan	-1291
▁mendapatkan	-1292
▁mengunjungi	-1293
ea	-1294
umb	-1295
umi	-1296
awar	-1297
ejut	-1298
ergi	-1299
uhan	-1300
yung	-1301
▁dic	-1302
▁dig	-1303
▁dij	-1304
▁gad	-1305
▁kol	-1306
▁rus	-1307
▁tep	-1308
ampak	-1309
embun	-1310
enyum	-1311
ihkan	-1312
▁bank	-1313
▁beli	-1314
▁biru	-1315
▁mand	-1316
▁darah	-1317
▁hitam	-1318
▁kabar	-1319
▁keber	-1320
▁kedua	-1321
▁sejak	-1322
▁adikku	-1323
▁itulah	-1324
▁menuju	-1325
▁peduli	-1326
▁sayang	-1327
▁serius	-1328
▁dimulai	-1329
▁dirinya	-1330
▁jawaban	-1331
▁keputus	-1332
▁sebagai	-1333
▁tanggal	-1334
▁temanku	-1335
▁kepadamu	-1336
▁membayar	-1337
▁mobilnya	-1338
▁terbiasa	-1339
▁tersenyum	-1340
gu	-1341
ewa	-1342
ula	-1343
unci	-1344
urna	-1345
▁cin	-1346
▁dar	-1347
▁dol	-1348
▁had	-1349
▁hob	-1350
▁jum	-1351
▁mes	-1352
aksud	-1353
dakan	-1354
intai	-1355
puter	-1356
▁emas	-1357
▁kuat	-1358
▁lagu	-1359
▁mata	-1360
▁ment	-1361
▁semb	-1362
abisan	-1363
angkap	-1364
untung	-1365
▁gadis	-1366
▁memel	-1367
▁paham	-1368
▁seber	-1369
▁sehat	-1370
▁sepak	-1371
▁terti	-1372
eberang	-1373
ematika	-1374
▁gambar	-1375
▁mengir	-1376
enangkan	-1377
▁ayahnya	-1378
▁mencium	-1379
▁mencuci	-1380
▁menolak	-1381
▁panjang	-1382
▁sebelah	-1383
▁semakin	-1384
▁terbuat	-1385
▁terluka	-1386
▁akhirnya	-1387
▁harganya	-1388
▁khawatir	-1389
▁komputer	-1390
▁menyerah	-1391
▁pikirkan	-1392
▁sempurna	-1393
▁terhadap	-1394
▁dilakukan	-1395
▁kehabisan	-1396
▁membuatmu	-1397
▁menyadari	-1398
▁matematika	-1399
▁mengenakan	-1400
▁memberitahu	-1401
▁menyeberang	-1402
▁memberitahuku	-1403
aya	-1404
bol	-1405
git	-1406
kas	-1407
man	-1408
mat	-1409
omp	-1410
ons	-1411
tar	-1412
ump	-1413
akar	-1414
anji	-1415
ebak	-1416
ibat	-1417
itas	-1418
▁bas	-1419
▁bon	-1420
▁bus	-1421
▁kac	-1422
▁sab	-1423
onomi	-1424
yikan	-1425
▁astr	-1426
▁band	-1427
▁beri	-1428
▁cuma	-1429
▁malu	-1430
▁masa	-1431
▁terg	-1432
▁umur	-1433
▁wakt	-1434
alaman	-1435
amanya	-1436
antung	-1437
▁biasa	-1438
▁mampu	-1439
▁taksi	-1440
entikan	-1441
▁kepala	-1442
▁kesuka	-1443
▁kelihat	-1444
▁ketahui	-1445
▁memaham	-1446
▁membawa	-1447
▁menyuka	-1448
▁minuman	-1449
▁terbuka	-1450
▁tanganmu	-1451
▁tertidur	-1452
▁ketimbang	-1453
▁melihatmu	-1454
▁mencintai	-1455
▁penasaran	-1456
▁membiarkan	-1457
fa	-1458
abr	-1459
end	-1460
sil	-1461
uni	-1462
ura	-1463
wan	-1464
▁er	-1465
▁sw	-1466
alik	-1467
awan	-1468
ebab	-1469
engg	-1470
eter	-1471
impi	-1472
ingk	-1473
uruh	-1474
▁api	-1475
▁dih	-1476
▁res	-1477
▁sim	-1478
▁tuj	-1479
alkan	-1480
embak	-1481
▁agar	-1482
▁bumi	-1483
▁ikut	-1484
▁kaki	-1485
▁krim	-1486
▁kuda	-1487
▁laba	-1488
▁perb	-1489
▁perj	-1490
▁perk	-1491
▁soal	-1492
▁topi	-1493
▁umum	-1494
▁badan	-1495
▁beras	-1496
▁danau	-1497
▁dolar	-1498
▁gitar	-1499
▁hadir	-1500
▁istri	-1501
▁kakek	-1502
▁keada	-1503
▁kenal	-1504
▁lepas	-1505
▁mandi	-1506
▁saran	-1507
▁suara	-1508
▁tuaku	-1509
elajari	-1510
▁airnya	-1511
▁bersih	-1512
▁cerita	-1513
▁pandai	-1514
▁pensil	-1515
▁potong	-1516
▁berbeda	-1517
▁dimakan	-1518
▁kakakku	-1519
▁menungg	-1520
▁menurun	-1521
▁menutup	-1522
▁mobilku	-1523
▁rencana	-1524
▁terbang	-1525
▁berharap	-1526
▁memotong	-1527
▁mengirim	-1528
▁nyalakan	-1529
▁rumahnya	-1530
▁berbahaya	-1531
▁berencana	-1532
▁kemungkin	-1533
▁keputusan	-1534
▁keretanya	-1535
▁kulakukan	-1536
▁mengikuti	-1537
▁menyukainya	-1538
ki	-1539
▁:	-1540
aaf	-1541
jak	-1542
opa	-1543
pen	-1544
tik	-1545
ucu	-1546
▁ob	-1547
▁tr	-1548
▁uj	-1549
dera	-1550
esan	-1551
esar	-1552
ewan	-1553
form	-1554
ilet	-1555
inap	-1556
uali	-1557
ukur	-1558
ulus	-1559
▁bin	-1560
▁cap	-1561
▁cok	-1562
▁kub	-1563
▁lel	-1564
▁mak	-1565
▁pro	-1566
▁wan	-1567
▁arah	-1568
▁buat	-1569
▁diam	-1570
▁ekor	-1571
▁foto	-1572
▁gula	-1573
▁kaya	-1574
▁keju	-1575
▁lamp	-1576
▁penj	-1577
akanku	-1578
ancing	-1579
asinya	-1580
asiswa	-1581
ubungi	-1582
▁asing	-1583
▁catur	-1584
▁cuaca	-1585
▁eropa	-1586
▁garam	-1587
▁hewan	-1588
▁jenis	-1589
▁matah	-1590
▁mengk	-1591
▁penuh	-1592
▁pisau	-1593
▁sedih	-1594
▁telur	-1595
▁tiket	-1596
▁bahkan	-1597
▁dirimu	-1598
▁ibunya	-1599
▁kadang	-1600
▁kecewa	-1601
▁maukah	-1602
▁pulpen	-1603
▁toilet	-1604
▁wanita	-1605
▁bendera	-1606
▁keadaan	-1607
▁mengaku	-1608
▁mengend	-1609
▁pakaian	-1610
▁pilihan	-1611
▁saudara	-1612
▁sejarah	-1613
▁bukankah	-1614
▁hujannya	-1615
▁lampunya	-1616
▁mencinta	-1617
▁terkejut	-1618
▁digunakan	-1619
▁mengemudi	-1620
▁mengingin	-1621
▁menghilang	-1622
▁mengerjakan	-1623
▁menunjukkan	-1624
▁pekerjaanmu	-1625
ks	-1626
la	-1627
oc	-1628
art	-1629
don	-1630
eli	-1631
ikm	-1632
lan	-1633
ohn	-1634
por	-1635
ter	-1636
uhi	-1637
yol	-1638
▁ok	-1639
ahat	-1640
ahun	-1641
alui	-1642
amud	-1643
eman	-1644
ewat	-1645
iano	-1646
izin	-1647
ucon	-1648
▁bot	-1649
▁daf	-1650
▁gag	-1651
▁gem	-1652
▁ger	-1653
▁gol	-1654
▁mul	-1655
▁sec	-1656
▁sup	-1657
▁tau	-1658
adaku	-1659
aikan	-1660
cinya	-1661
erita	-1662
gigit	-1663
ingan	-1664
uknya	-1665
▁baju	-1666
▁batu	-1667
▁berm	-1668
▁john	-1669
▁kenc	-1670
▁kons	-1671
▁luma	-1672
▁suam	-1673
▁terp	-1674
alanan	-1675
amudra	-1676
obanya	-1677
ungnya	-1678
▁basah	-1679
▁berit	-1680
▁capek	-1681
▁gelap	-1682
▁ibumu	-1683
▁kamus	-1684
▁kotor	-1685
▁kulit	-1686
▁lukis	-1687
▁mawar	-1688
▁piano	-1689
▁pulau	-1690
▁tanda	-1691
▁ujian	-1692
atangan	-1693
▁akibat	-1694
▁busnya	-1695
▁daftar	-1696
▁inform	-1697
▁kulkas	-1698
▁lanjut	-1699
▁maksud	-1700
▁payung	-1701
▁pindah	-1702
▁pinjam	-1703
▁pintar	-1704
▁berasal	-1705
▁caranya	-1706
▁lelucon	-1707
▁lumayan	-1708
▁memikir	-1709
▁mengant	-1710
▁pacarku	-1711
▁permain	-1712
▁samudra	-1713
▁untukmu	-1714
▁bukanlah	-1715
▁keluarga	-1716
▁menembak	-1717
▁mengecew	-1718
▁menginap	-1719
▁mengubah	-1720
▁seberapa	-1721
▁seminggu	-1722
▁waktunya	-1723
▁astronomi	-1724
▁bernyanyi	-1725
▁beruntung	-1726
▁favoritmu	-1727
▁mahasiswa	-1728
▁melupakan	-1729
▁memancing	-1730
▁mematikan	-1731
▁membantumu	-1732
▁mencobanya	-1733
▁perjalanan	-1734
▁tinggalkan	-1735
▁kemungkinan	-1736
▁memperbaiki	-1737
▁pekerjaannya	-1738
ers	-1739
eum	-1740
iko	-1741
ota	-1742
pus	-1743
yam	-1744
▁il	-1745
▁mu	-1746
▁ut	-1747
arai	-1748
atif	-1749
atus	-1750
eksi	-1751
inga	-1752
irip	-1753
ongk	-1754
sung	-1755
ujur	-1756
ukum	-1757
umur	-1758
urus	-1759
utku	-1760
▁ang	-1761
▁bab	-1762
▁bet	-1763
▁dem	-1764
▁ist	-1765
▁kue	-1766
▁kuk	-1767
▁piz	-1768
ancur	-1769
angun	-1770
canya	-1771
egang	-1772
lukan	-1773
ompet	-1774
▁asal	-1775
▁bayi	-1776
▁cina	-1777
▁gigi	-1778
▁olah	-1779
ainkan	-1780
arikan	-1781
inding	-1782
irahat	-1783
▁bosan	-1784
▁bunuh	-1785
▁empat	-1786
▁gelas	-1787
▁jeruk	-1788
▁kartu	-1789
▁lampu	-1790
▁lulus	-1791
▁mirip	-1792
▁sepen	-1793
▁tanah	-1794
▁tujuh	-1795
antikan	-1796
ebabkan	-1797
kusikan	-1798
▁alasan	-1799
▁anakku	-1800
▁dengar	-1801
▁dicuri	-1802
▁dimana	-1803
▁hangat	-1804
▁jarang	-1805
▁konyol	-1806
▁mainan	-1807
▁matamu	-1808
▁memaaf	-1809
▁memint	-1810
▁museum	-1811
▁pemain	-1812
inggalan	-1813
ingungan	-1814
▁anaknya	-1815
▁bantuan	-1816
▁barunya	-1817
▁berusia	-1818
▁jendela	-1819
▁kalimat	-1820
▁kecuali	-1821
▁kehidup	-1822
▁lukisan	-1823
▁manakah	-1824
▁melalui	-1825
▁memilih	-1826
▁menanam	-1827
▁mengand	-1828
▁rasanya	-1829
▁ambilkan	-1830
▁bangunan	-1831
▁berjanji	-1832
▁bertahan	-1833
▁binatang	-1834
▁kamarnya	-1835
▁kepadaku	-1836
▁matahari	-1837
▁menjelas	-1838
▁menyaran	-1839
▁radionya	-1840
▁terbesar	-1841
▁terkunci	-1842
▁bersenang	-1843
▁informasi	-1844
▁permainan	-1845
▁masalahnya	-1846
▁sepenuhnya	-1847
▁kebingungan	-1848
▁kelihatannya	-1849
▁mencintainya	-1850
▁menginginkan	-1851
▁menyenangkan	-1852
13	-1853
hi	-1854
if	-1855
ij	-1856
ji	-1857
ri	-1858
yo	-1859
▁5	-1860
▁8	-1861
aus	-1862
aut	-1863
eja	-1864
est	-1865
gas	-1866
ila	-1867
oga	-1868
uas	-1869
uji	-1870
▁19	-1871
▁da	-1872
▁ev	-1873
acks	-1874
akut	-1875
apas	-1876
apur	-1877
asih	-1878
atih	-1879
ayan	-1880
ebas	-1881
enek	-1882
ilan	-1883
inum	-1884
omor	-1885
raga	-1886
rika	-1887
ulat	-1888
univ	-1889
▁bau	-1890
▁bub	-1891
▁dul	-1892
▁ged	-1893
▁kat	-1894
▁mon	-1895
▁rok	-1896
▁sor	-1897
▁war	-1898
adiah	-1899
amaku	-1900
ambah	-1901
anggu	-1902
atuhi	-1903
erima	-1904
unyai	-1905
▁2013	-1906
▁diba	-1907
▁izin	-1908
▁jemb	-1909
▁ping	-1910
▁plas	-1911
▁univ	-1912
ackson	-1913
akutan	-1914
anding	-1915
asihat	-1916
aturan	-1917
ikmati	-1918
pustak	-1919
sihkan	-1920
uarkan	-1921
▁belak	-1922
▁hasil	-1923
▁kebun	-1924
▁kolam	-1925
▁koper	-1926
▁koran	-1927
▁lewat	-1928
▁libur	-1929
▁nenek	-1930
▁nomor	-1931
▁pekan	-1932
▁sungg	-1933
▁susah	-1934
▁tokyo	-1935
emahkan	-1936
esarkan	-1937
usahaan	-1938
▁alamat	-1939
▁alergi	-1940
▁angkat	-1941
▁aturan	-1942
▁bangga	-1943
▁gedung	-1944
▁hadiah	-1945
▁hilang	-1946
▁kamera	-1947
▁lancar	-1948
▁menari	-1949
▁mentah	-1950
▁namaku	-1951
▁nampak	-1952
▁pantai	-1953
anjutnya	-1954
▁anggota	-1955
▁bandara	-1956
▁bukunya	-1957
▁diminum	-1958
▁hidupku	-1959
▁jackson	-1960
▁kamarmu	-1961
▁matikan	-1962
▁memeluk	-1963
▁mengira	-1964
▁penjara	-1965
▁permisi	-1966
▁plastik	-1967
▁temanmu	-1968
▁univers	-1969
▁dapatkah	-1970
▁harusnya	-1971
▁jembatan	-1972
▁langsung	-1973
▁memahami	-1974
▁menolong	-1975
▁temannya	-1976
▁terjebak	-1977
embunyikan	-1978
▁bicarakan	-1979
▁kehidupan	-1980
▁ketakutan	-1981
▁memanggil	-1982
▁mempunyai	-1983
▁perpustak	-1984
▁segalanya	-1985
▁tertinggi	-1986
▁diperbaiki	-1987
▁memerlukan	-1988
▁mengangkat	-1989
▁mengundang	-1990
▁perusahaan	-1991
▁keluarganya	-1992
▁ketinggalan	-1993
▁mempercayai	-1994
▁mengendarai	-1995
▁menyebabkan	-1996
▁selanjutnya	-1997
▁membersihkan	-1998
▁mengkhawatir	-1999
▁menyembunyikan	-2000
▁o	-2001
dir	-2002
ega	-2003
ker	-2004
kir	-2005
kop	-2006
rat	-2007
san	-2008
tal	-2009
unc	-2010
▁00	-2011
▁18	-2012
▁br	-2013
anja	-2014
atas	-2015
elat	-2016
emen	-2017
erak	-2018
erik	-2019
ikat	-2020
iksa	-2021
ipat	-2022
ocok	-2023
ular	-2024
▁bea	-2025
▁jag	-2026
▁jus	-2027
▁kek	-2028
▁lus	-2029
▁pac	-2030
▁pak	-2031
▁pil	-2032
▁rib	-2033
▁str	-2034
▁tes	-2035
▁wal	-2036
alami	-2037
amata	-2038
ankan	-2039
ember	-2040
empat	-2041
encan	-2042
erest	-2043
innya	-2044
intah	-2045
lanet	-2046
lihat	-2047
nyata	-2048
orong	-2049
oskop	-2050
takan	-2051
udian	-2052
ungsi	-2053
untah	-2054
▁berf	-2055
▁buru	-2056
▁golf	-2057
▁kaca	-2058
▁lucu	-2059
▁pasi	-2060
▁penc	-2061
▁rasi	-2062
▁seng	-2063
▁seni	-2064
▁sofa	-2065
▁sore	-2066
▁usia	-2067
ampuan	-2068
anggil	-2069
angkir	-2070
engkar	-2071
▁balik	-2072
▁botol	-2073
▁cocok	-2074
▁dapur	-2075
▁gagal	-2076
▁hukum	-2077
▁kunci	-2078
▁rusak	-2079
▁sepat	-2080
▁suatu	-2081
▁tekan	-2082
▁udara	-2083
amatkan	-2084
ecahkan	-2085
hatikan	-2086
indukan	-2087
indungi	-2088
ucapkan	-2089
▁antara	-2090
▁bagian	-2091
▁bangsa	-2092
▁boneka	-2093
▁dariku	-2094
▁dibuat	-2095
▁hobiku	-2096
▁konser	-2097
▁lakiku	-2098
▁layang	-2099
▁masing	-2100
▁membuj	-2101
▁muntah	-2102
▁nyaman	-2103
▁pisang	-2104
▁planet	-2105
▁sarung	-2106
▁tengah	-2107
▁tombol	-2108
ambahkan	-2109
▁berbuat	-2110
▁cokelat	-2111
▁dinding	-2112
▁dulunya	-2113
▁everest	-2114
▁kamarku	-2115
▁keluarg	-2116
▁liburan	-2117
▁lupakan	-2118
▁matanya	-2119
▁meletak	-2120
▁memasuk	-2121
▁memperb	-2122
▁menghad	-2123
▁pelayan	-2124
▁perbuat	-2125
▁pingsan	-2126
▁rasakan	-2127
▁sengaja	-2128
▁tahunku	-2129
▁berakhir	-2130
▁bertahun	-2131
▁kacamata	-2132
▁mencurig	-2133
▁mengangg	-2134
▁mengeluh	-2135
▁menyalah	-2136
▁pernikah	-2137
▁rambutmu	-2138
▁semangka	-2139
▁setengah	-2140
▁sudahkah	-2141
▁dengarkan	-2142
▁dibanding	-2143
▁kemampuan	-2144
▁memainkan	-2145
▁mengalami	-2146
▁bertengkar	-2147
▁dibesarkan	-2148
▁jendelanya	-2149
▁melindungi	-2150
▁membantuku	-2151
▁membelikan	-2152
▁memikirkan	-2153
▁menanyakan	-2154
▁merindukan	-2155
▁menghubungi	-2156
▁universitas	-2157
▁membicarakan	-2158
▁perpustakaan	-2159
▁memberikannya	-2160
▁memberitahumu	-2161
▁memberitahukan	-2162
mi	-2163
og	-2164
ow	-2165
▁4	-2166
▁6	-2167
▁z	-2168
das	-2169
erj	-2170
esi	-2171
fik	-2172
gab	-2173
isa	-2174
mal	-2175
ont	-2176
tuh	-2177
una	-2178
yur	-2179
▁10	-2180
▁re	-2181
▁sm	-2182
▁us	-2183
ajak	-2184
aksi	-2185
ecat	-2186
edia	-2187
egas	-2188
enci	-2189
enya	-2190
gram	-2191
ijau	-2192
ilai	-2193
jaga	-2194
oduk	-2195
okum	-2196
onal	-2197
unda	-2198
▁and	-2199
▁bib	-2200
▁flu	-2201
▁gug	-2202
▁lem	-2203
▁lon	-2204
▁oke	-2205
▁pid	-2206
▁puc	-2207
▁ram	-2208
▁rem	-2209
▁sop	-2210
▁teb	-2211
▁tur	-2212
abrik	-2213
adwal	-2214
angko	-2215
dakah	-2216
empar	-2217
ewati	-2218
lasik	-2219
olusi	-2220
ormal	-2221
pinya	-2222
tikan	-2223
ubung	-2224
▁akal	-2225
▁ayam	-2226
▁babi	-2227
▁cuci	-2228
▁desa	-2229
▁haus	-2230
▁obat	-2231
▁paru	-2232
▁raja	-2233
▁rusa	-2234
▁saud	-2235
ahukan	-2236
elahan	-2237
gabung	-2238
indari	-2239
ingkat	-2240
ukanya	-2241
▁bebas	-2242
▁belok	-2243
▁buang	-2244
▁bubur	-2245
▁cerit	-2246
▁cukai	-2247
▁dokum	-2248
▁habis	-2249
▁hijau	-2250
▁hutan	-2251
▁jujur	-2252
▁kalah	-2253
▁keseh	-2254
▁lapor	-2255
▁malas	-2256
▁mimpi	-2257
▁paman	-2258
▁perut	-2259
▁seped	-2260
▁tugas	-2261
▁tuhan	-2262
▁walau	-2263
amannya	-2264
artemen	-2265
malukan	-2266
osankan	-2267
yangkan	-2268
▁adakah	-2269
▁apinya	-2270
▁bagiku	-2271
▁bantal	-2272
▁berani	-2273
▁berita	-2274
▁bersel	-2275
▁diriku	-2276
▁dompet	-2277
▁inilah	-2278
▁klasik	-2279
▁kurasa	-2280
▁menyet	-2281
▁namamu	-2282
▁normal	-2283
▁pabrik	-2284
▁perasa	-2285
▁sembun	-2286
▁semoga	-2287
▁sentuh	-2288
▁tampak	-2289
▁tangga	-2290
▁tenang	-2291
▁tepung	-2292
atangani	-2293
unjukkan	-2294
▁bawakan	-2295
▁berhati	-2296
▁bingung	-2297
▁bioskop	-2298
▁digigit	-2299
▁halaman	-2300
▁istriku	-2301
▁lakinya	-2302
▁memesan	-2303
▁menakut	-2304
▁mengemb	-2305
▁merawat	-2306
▁nasihat	-2307
▁panggil	-2308
▁situasi	-2309
▁terkena	-2310
▁uangnya	-2311
▁untukku	-2312
▁belakang	-2313
▁beritahu	-2314
▁berteman	-2315
▁butuhkan	-2316
▁diadakan	-2317
▁hentikan	-2318
▁keduanya	-2319
▁kemudian	-2320
▁kuncinya	-2321
▁melewati	-2322
▁membenci	-2323
▁membuang	-2324
▁mencukur	-2325
▁menyakit	-2326
▁olahraga	-2327
▁pacarnya	-2328
▁perangko	-2329
▁rapatnya	-2330
▁seharian	-2331
▁terdekat	-2332
▁tertutup	-2333
▁berterima	-2334
▁kepalanya	-2335
▁memercaya	-2336
▁menderita	-2337
▁merasakan	-2338
▁merupakan	-2339
▁peraturan	-2340
▁pernahkah	-2341
▁tangannya	-2342
andatangani	-2343
▁bantuannya	-2344
▁keluargaku	-2345
▁kesukaanku	-2346
▁meletakkan	-2347
▁membuatnya	-2348
▁pendapatmu	-2349
▁stasiunnya	-2350
▁membosankan	-2351
▁mempelajari	-2352
▁mengenalnya	-2353
▁mengucapkan	-2354
▁menyarankan	-2355
▁mencurigakan	-2356
▁mendengarnya	-2357
▁memperhatikan	-2358
▁mengecewakanku	-2359
pu	-2360
arg	-2361
ato	-2362
cin	-2363
erm	-2364
gak	-2365
iat	-2366
ipu	-2367
jar	-2368
pan	-2369
sin	-2370
tol	-2371
uks	-2372
▁ab	-2373
▁it	-2374
▁ot	-2375
▁pi	-2376
ahab	-2377
akat	-2378
aksa	-2379
amil	-2380
angi	-2381
ansa	-2382
arat	-2383
atal	-2384
daki	-2385
elek	-2386
erit	-2387
ihan	-2388
imut	-2389
inal	-2390
inan	-2391
oboh	-2392
otor	-2393
ubuh	-2394
unan	-2395
▁000	-2396
▁alk	-2397
▁apr	-2398
▁bia	-2399
▁bol	-2400
▁dah	-2401
▁did	-2402
▁gak	-2403
▁gur	-2404
▁hai	-2405
▁hid	-2406
▁jas	-2407
▁jut	-2408
▁kap	-2409
▁keg	-2410
▁kum	-2411
▁kut	-2412
▁lub	-2413
▁mac	-2414
▁mad	-2415
▁pop	-2416
▁pos	-2417
▁suh	-2418
▁tal	-2419
▁tip	-2420
▁vol	-2421
▁yen	-2422
abrak	-2423
acara	-2424
ahagi	-2425
ampan	-2426
argai	-2427
atasi	-2428
edaku	-2429
engan	-2430
ihara	-2431
impan	-2432
lahan	-2433
omong	-2434
ompat	-2435
onsel	-2436
toran	-2437
umkan	-2438
ungan	-2439
▁bawa	-2440
▁bila	-2441
▁cari	-2442
▁dasi	-2443
▁fuji	-2444
▁ilmu	-2445
▁keti	-2446
▁kupu	-2447
▁laut	-2448
▁meks	-2449
▁piza	-2450
▁pura	-2451
▁sapi	-2452
▁tanp	-2453
▁temb	-2454
apanmu	-2455
ongkok	-2456
ulitan	-2457
▁biola	-2458
▁disel	-2459
▁gajah	-2460
▁inter	-2461
▁kanan	-2462
▁layak	-2463
▁manis	-2464
▁meski	-2465
▁mulut	-2466
▁nggak	-2467
▁parah	-2468
▁pengg	-2469
▁pucat	-2470
▁ruang	-2471
▁sabtu	-2472
▁semes	-2473
▁sukai	-2474
▁tanya	-2475
▁tasmu	-2476
▁tengg	-2477
▁tikus	-2478
▁wajah	-2479
anggung	-2480
embunyi	-2481
inginan	-2482
▁akulah	-2483
▁ayahmu	-2484
▁banget	-2485
▁barumu	-2486
▁berist	-2487
▁bohong	-2488
▁bosnya	-2489
▁cerdas	-2490
▁dijual	-2491
▁istana	-2492
▁jumlah	-2493
▁kanker	-2494
▁kemana	-2495
▁kemari	-2496
▁kuning	-2497
▁london	-2498
▁lubang	-2499
▁maupun	-2500
▁membaw	-2501
▁mendis	-2502
▁menemu	-2503
▁mengag	-2504
▁menipu	-2505
▁menyer	-2506
▁pendek	-2507
▁perang	-2508
▁pidato	-2509
▁ponsel	-2510
▁renang	-2511
▁selain	-2512
▁sempit	-2513
▁sweter	-2514
▁takdir	-2515
▁tampan	-2516
▁terasa	-2517
▁tuanya	-2518
ancurkan	-2519
engaruhi	-2520
▁berguna	-2521
▁istrimu	-2522
▁kabarmu	-2523
▁makasih	-2524
▁masakan	-2525
▁meksiko	-2526
▁melukis	-2527
▁memukul	-2528
▁mendaki	-2529
▁menyent	-2530
▁milikku	-2531
▁pasifik	-2532
▁perkata	-2533
▁pikiran	-2534
▁program	-2535
▁rumahmu	-2536
▁salahku	-2537
▁seluruh	-2538
▁sungguh	-2539
▁talinya	-2540
▁telinga	-2541
▁umumnya	-2542
▁berdansa	-2543
▁bukannya	-2544
▁cuacanya	-2545
▁dibangun	-2546
▁dilarang	-2547
▁kesempat	-2548
▁membalas	-2549
▁membutuh	-2550
▁menabrak	-2551
▁mengakui	-2552
▁mengatur	-2553
▁mengetuk	-2554
▁menikahi	-2555
▁restoran	-2556
▁sarankan	-2557
▁sepedaku	-2558
▁siapapun	-2559
▁tanganku	-2560
▁terbakar	-2561
▁walaupun	-2562
▁anjingnya	-2563
▁bantuanmu	-2564
▁bergabung	-2565
▁keberatan	-2566
▁kelelahan	-2567
▁kesehatan	-2568
▁kesulitan	-2569
▁memeriksa	-2570
▁mendorong	-2571
▁mengatasi	-2572
▁menurutku	-2573
▁menyangka	-2574
▁pelajaran	-2575
▁terkadang	-2576
▁tunjukkan	-2577
▁bersamanya	-2578
▁jawabannya	-2579
▁memecahkan	-2580
▁mempermain	-2581
▁menciumnya	-2582
▁menganggap	-2583
▁menghadiri	-2584
▁menghargai	-2585
▁menurunkan	-2586
▁berselancar	-2587
▁bersembunyi	-2588
▁bertanggung	-2589
▁mencintaimu	-2590
▁menjelaskan	-2591
▁menyalahkan	-2592
▁beristirahat	-2593
▁dibandingkan	-2594
▁menghentikan	-2595
▁mendiskusikan	-2596
▁mengembalikan	-2597
▁membutuhkannya	-2598
▁meninggalkanmu	-2599
li	-2600
su	-2601
yu	-2602
agu	-2603
aru	-2604
erb	-2605
ern	-2606
ger	-2607
idi	-2608
inc	-2609
lik	-2610
muk	-2611
net	-2612
nis	-2613
ogi	-2614
ond	-2615
org	-2616
ort	-2617
pon	-2618
tah	-2619
taw	-2620
ume	-2621
yet	-2622
zin	-2623
▁au	-2624
▁bu	-2625
▁mi	-2626
▁ny	-2627
▁te	-2628
▁th	-2629
adai	-2630
akmu	-2631
arga	-2632
aruh	-2633
cium	-2634
ebat	-2635
ebus	-2636
ejam	-2637
elam	-2638
eran	-2639
esat	-2640
esia	-2641
ewas	-2642
gala	-2643
graf	-2644
ideo	-2645
idih	-2646
idik	-2647
inar	-2648
indu	-2649
ingi	-2650
iram	-2651
itif	-2652
itik	-2653
ohol	-2654
saan	-2655
tasi	-2656
ugas	-2657
ulah	-2658
ulir	-2659
uruk	-2660
usak	-2661
▁atl	-2662
▁baj	-2663
▁bep	-2664
▁cat	-2665
▁des	-2666
▁dew	-2667
▁din	-2668
▁gal	-2669
▁gej	-2670
▁gor	-2671
▁hat	-2672
▁idi	-2673
▁ind	-2674
▁kok	-2675
▁lok	-2676
▁maj	-2677
▁met	-2678
▁mil	-2679
▁pat	-2680
▁pir	-2681
▁rak	-2682
▁sak	-2683
▁sih	-2684
▁sma	-2685
▁taj	-2686
▁ton	-2687
▁usi	-2688
agian	-2689
amamu	-2690
anduk	-2691
araku	-2692
aramu	-2693
ariku	-2694
atian	-2695
embar	-2696
embus	-2697
emudi	-2698
indak	-2699
ingku	-2700
kenal	-2701
ologi	-2702
ongan	-2703
ortel	-2704
sinya	-2705
tahil	-2706
tanya	-2707
udaya	-2708
ulkan	-2709
umber	-2710
yakit	-2711
yinya	-2712
▁aman	-2713
▁aula	-2714
▁banj	-2715
▁bulu	-2716
▁demi	-2717
▁form	-2718
▁gaya	-2719
▁hobi	-2720
▁jaga	-2721
▁kaus	-2722
▁kend	-2723
▁kiri	-2724
▁kred	-2725
▁lusa	-2726
▁maka	-2727
▁muak	-2728
▁perc	-2729
▁peta	-2730
▁ragu	-2731
▁suar	-2732
▁suhu	-2733
▁swis	-2734
▁tamu	-2735
▁tata	-2736
▁term	-2737
▁tuli	-2738
▁urus	-2739
▁usah	-2740
ahabat	-2741
akaran	-2742
alahan	-2743
anggan	-2744
ekolah	-2745
elanja	-2746
ergian	-2747
ingkah	-2748
ukuran	-2749
unjung	-2750
▁aktor	-2751
▁andai	-2752
▁badai	-2753
▁berar	-2754
▁bersi	-2755
▁biaya	-2756
▁dikel	-2757
▁hamil	-2758
▁hantu	-2759
▁indon	-2760
▁jelek	-2761
▁jumpa	-2762
▁kapal	-2763
▁kekur	-2764
▁lipat	-2765
▁mangk	-2766
▁menga	-2767
▁mesin	-2768
▁musuh	-2769
▁napas	-2770
▁natal	-2771
▁pajak	-2772
▁pedas	-2773
▁pelan	-2774
▁pesan	-2775
▁ramah	-2776
▁ratus	-2777
▁rindu	-2778
▁semen	-2779
▁telat	-2780
▁tentu	-2781
▁tuamu	-2782
▁tungg	-2783
▁utama	-2784
▁video	-2785
abaikan	-2786
ahuinya	-2787
aikinya	-2788
atuhkan	-2789
epatnya	-2790
nyataan	-2791
▁adanya	-2792
▁anakmu	-2793
▁berpel	-2794
▁bisbol	-2795
▁cincin	-2796
▁dahulu	-2797
▁dewasa	-2798
▁garasi	-2799
▁gurumu	-2800
▁jadwal	-2801
▁jerman	-2802
▁lengan	-2803
▁mampir	-2804
▁mataku	-2805
▁mengej	-2806
▁monyet	-2807
▁nyamuk	-2808
▁paspor	-2809
▁pemand	-2810
▁permas	-2811
▁persik	-2812
▁pistol	-2813
▁produk	-2814
▁rumput	-2815
▁sampah	-2816
▁santai	-2817
▁sejauh	-2818
▁sumber	-2819
▁terang	-2820
▁terpel	-2821
▁volume	-2822
▁wortel	-2823
eriksaan	-2824
ingkatan	-2825
lihatkan	-2826
▁artinya	-2827
▁berikut	-2828
▁berkons	-2829
▁beruang	-2830
▁berumur	-2831
▁darinya	-2832
▁dipecat	-2833
▁disebut	-2834
▁ditutup	-2835
▁dokumen	-2836
▁filmnya	-2837
▁gerbang	-2838
▁kopinya	-2839
▁kupikir	-2840
▁menaiki	-2841
▁menebak	-2842
▁menjaga	-2843
▁penulis	-2844
▁petugas	-2845
▁politik	-2846
▁segelas	-2847
▁tahukah	-2848
▁tanpamu	-2849
▁temukan	-2850
▁tulisan	-2851
▁usianya	-2852
▁bergerak	-2853
▁diundang	-2854
▁formulir	-2855
▁hasilnya	-2856
▁hidupnya	-2857
▁internet	-2858
▁kecilkan	-2859
▁kedengar	-2860
▁kulitnya	-2861
▁lepaskan	-2862
▁maksudmu	-2863
▁melompat	-2864
▁memasuki	-2865
▁mematuhi	-2866
▁membujuk	-2867
▁mendidih	-2868
▁mengemud	-2869
▁mengizin	-2870
▁mengunci	-2871
▁menyiram	-2872
▁menyuruh	-2873
▁meskipun	-2874
▁mustahil	-2875
▁pastikan	-2876
▁penyakit	-2877
▁penyanyi	-2878
▁perancis	-2879
▁perlahan	-2880
▁pestanya	-2881
▁sebagian	-2882
▁sembilan	-2883
▁serigala	-2884
▁siapakah	-2885
▁suratnya	-2886
▁tahunnya	-2887
▁terdapat	-2888
▁terletak	-2889
▁tersesat	-2890
▁tetangga	-2891
▁bepergian	-2892
▁berfungsi	-2893
▁dikatakan	-2894
▁dipercaya	-2895
▁ditemukan	-2896
▁indonesia	-2897
▁kebakaran	-2898
▁melarikan	-2899
▁melihatku	-2900
▁memberimu	-2901
▁mengandal	-2902
▁mengantar	-2903
▁meningkat	-2904
▁rambutnya	-2905
▁sangatlah	-2906
▁secangkir	-2907
▁sepedanya	-2908
▁tambahkan	-2909
▁berbelanja	-2910
▁bersekolah	-2911
▁dipelajari	-2912
▁kekurangan	-2913
▁kembalikan	-2914
▁kesempatan	-2915
▁kesukaanmu	-2916
▁komputerku	-2917
▁membunuhku	-2918
▁pernikahan	-2919
▁pernyataan	-2920
▁secepatnya	-2921
▁selesaikan	-2922
▁teleponnya	-2923
▁tertinggal	-2924
▁memperingat	-2925
▁memperkenal	-2926
▁mengabaikan	-2927
▁mengirimkan	-2928
▁menjatuhkan	-2929
▁pemeriksaan	-2930
▁kesalahannya	-2931
▁memaafkannya	-2932
▁mengeluarkan	-2933
▁kedengarannya	-2934
▁mempercayaiku	-2935
▁mempermalukan	-2936
▁mengetahuinya	-2937
▁menyelamatkan	-2938
▁memperbaikinya	-2939
▁menandatangani	-2940
go	-2941
lo	-2942
za	-2943
▁e	-2944
ahl	-2945
aid	-2946
bat	-2947
ego	-2948
erh	-2949
ilo	-2950
ina	-2951
kat	-2952
lat	-2953
ode	-2954
odi	-2955
oni	-2956
osi	-2957
pet	-2958
sen	-2959
tif	-2960
tur	-2961
uai	-2962
urn	-2963
uti	-2964
▁16	-2965
▁ac	-2966
▁af	-2967
▁os	-2968
▁ul	-2969
▁ur	-2970
adar	-2971
anta	-2972
aris	-2973
ensa	-2974
eset	-2975
etik	-2976
faat	-2977
hian	-2978
ibur	-2979
ikam	-2980
iksi	-2981
inci	-2982
isik	-2983
iter	-2984
jata	-2985
kali	-2986
rasi	-2987
truk	-2988
ungu	-2989
urau	-2990
uruf	-2991
usin	-2992
utar	-2993
▁bom	-2994
▁cel	-2995
▁der	-2996
▁ego	-2997
▁eks	-2998
▁gaj	-2999
▁isi	-3000
▁jeb	-3001
▁kag	-3002
▁kej	-3003
▁kud	-3004
▁kuh	-3005
▁mej	-3006
▁mew	-3007
▁mis	-3008
▁new	-3009
▁pal	-3010
▁pus	-3011
▁reg	-3012
▁ski	-3013
▁tek	-3014
▁und	-3015
ahuan	-3016
akkan	-3017
alaku	-3018
alani	-3019
ambut	-3020
andas	-3021
andia	-3022
andum	-3023
antuk	-3024
anyak	-3025
arket	-3026
arkir	-3027
eligi	-3028
emuan	-3029
enyak	-3030
eraku	-3031
ering	-3032
feksi	-3033
iknya	-3034
impor	-3035
irkan	-3036
nanya	-3037
pijak	-3038
ratis	-3039
ukkan	-3040
undur	-3041
urang	-3042
urung	-3043
▁asia	-3044
▁cium	-3045
▁daun	-3046
▁engg	-3047
▁gaji	-3048
▁gunt	-3049
▁halo	-3050
▁jago	-3051
▁juta	-3052
▁kayu	-3053
▁kent	-3054
▁kuku	-3055
▁laku	-3056
▁lemb	-3057
▁madu	-3058
▁mist	-3059
▁muka	-3060
▁padi	-3061
▁pena	-3062
▁peny	-3063
▁puas	-3064
▁rapi	-3065
▁raya	-3066
▁ribu	-3067
▁temp	-3068
▁terc	-3069
▁tiap	-3070
▁tiri	-3071
▁tong	-3072
akanmu	-3073
anakan	-3074
anggup	-3075
angkan	-3076
aparan	-3077
arinya	-3078
endang	-3079
erikan	-3080
etahui	-3081
etulan	-3082
iapkan	-3083
ingnya	-3084
ondong	-3085
ormati	-3086
▁acara	-3087
▁angin	-3088
▁april	-3089
▁benua	-3090
▁bulat	-3091
▁egois	-3092
▁garis	-3093
▁gemuk	-3094
▁gugup	-3095
▁huruf	-3096
▁ikuti	-3097
▁jasmu	-3098
▁jumat	-3099
▁jurus	-3100
▁kasar	-3101
▁keben	-3102
▁kesep	-3103
▁korea	-3104
▁kupon	-3105
▁lensa	-3106
▁luang	-3107
▁menaw	-3108
▁menca	-3109
▁meter	-3110
▁motor	-3111
▁paris	-3112
▁paruh	-3113
▁pasir	-3114
▁patah	-3115
▁peman	-3116
▁perak	-3117
▁pilek	-3118
▁pilot	-3119
▁pizza	-3120
▁pungg	-3121
▁resmi	-3122
▁sabar	-3123
▁sayur	-3124
▁sinar	-3125
▁surya	-3126
▁swiss	-3127
▁tajam	-3128
▁tewas	-3129
▁turis	-3130
▁utara	-3131
▁wawan	-3132
asilkan	-3133
atalkan	-3134
ejamkan	-3135
ejutkan	-3136
olehkan	-3137
unangan	-3138
▁afrika	-3139
▁anting	-3140
▁asuran	-3141
▁bahaya	-3142
▁berisi	-3143
▁berjam	-3144
▁berkas	-3145
▁budaya	-3146
▁bukumu	-3147
▁coklat	-3148
▁darimu	-3149
▁diatas	-3150
▁dibaca	-3151
▁dibeli	-3152
▁diperb	-3153
▁disini	-3154
▁diterj	-3155
▁gandum	-3156
▁gelang	-3157
▁gereja	-3158
▁gratis	-3159
▁handuk	-3160
▁italia	-3161
▁kakiku	-3162
▁karpet	-3163
▁kredit	-3164
▁lakimu	-3165
▁lambat	-3166
▁landas	-3167
▁menamp	-3168
▁mengak	-3169
▁mengur	-3170
▁menyan	-3171
▁menyed	-3172
▁menyes	-3173
▁metode	-3174
▁pegang	-3175
▁pemalu	-3176
▁religi	-3177
▁rencan	-3178
▁ringan	-3179
▁sesuai	-3180
▁simpan	-3181
▁solusi	-3182
▁superm	-3183
▁tambah	-3184
▁umurmu	-3185
▁undang	-3186
ahagiaan	-3187
anjutkan	-3188
▁alkohol	-3189
▁berarti	-3190
▁berisik	-3191
▁berlaku	-3192
▁bernama	-3193
▁berniat	-3194
▁berpura	-3195
▁bolanya	-3196
▁catatan	-3197
▁ceroboh	-3198
▁dipaksa	-3199
▁dipijak	-3200
▁gunanya	-3201
▁hubungi	-3202
▁hukuman	-3203
▁izinkan	-3204
▁jebakan	-3205
▁katanya	-3206
▁kenakan	-3207
▁kuharap	-3208
▁lainnya	-3209
▁majalah	-3210
▁melepas	-3211
▁meludah	-3212
▁melukai	-3213
▁meminum	-3214
▁menaruh	-3215
▁menemui	-3216
▁merusak	-3217
▁milikmu	-3218
▁misteri	-3219
▁nenekku	-3220
▁ngantuk	-3221
▁nyenyak	-3222
▁perbeda	-3223
▁perempu	-3224
▁sahabat	-3225
▁sanggup	-3226
▁selimut	-3227
▁semesta	-3228
▁senjata	-3229
▁seratus	-3230
▁serikat	-3231
▁tahunmu	-3232
▁terburu	-3233
▁terjaga	-3234
▁anginnya	-3235
▁atlantik	-3236
▁bergegas	-3237
▁bergurau	-3238
▁berharga	-3239
▁berlatih	-3240
▁berlibur	-3241
▁berulang	-3242
▁dijatuhi	-3243
▁ingatkan	-3244
▁istrinya	-3245
▁kakeknya	-3246
▁kameraku	-3247
▁kematian	-3248
▁kepalaku	-3249
▁lihatlah	-3250
▁melempar	-3251
▁menelpon	-3252
▁menertaw	-3253
▁mengecat	-3254
▁menggali	-3255
▁pamannya	-3256
▁perintah	-3257
▁perminta	-3258
▁petunjuk	-3259
▁rambutku	-3260
▁sakitnya	-3261
▁sebanyak	-3262
▁seberang	-3263
▁sembunyi	-3264
▁semenjak	-3265
▁sepotong	-3266
▁serangga	-3267
▁silahkan	-3268
▁suaminya	-3269
▁suaranya	-3270
▁tepatnya	-3271
▁terbunuh	-3272
▁terburuk	-3273
▁terserah	-3274
▁tiongkok	-3275
▁untuknya	-3276
▁warnanya	-3277
▁bangunkan	-3278
▁berhembus	-3279
▁bermaksud	-3280
▁bertindak	-3281
▁datanglah	-3282
▁dijunjung	-3283
▁ditangkap	-3284
▁favoritku	-3285
▁garasinya	-3286
▁istirahat	-3287
▁kebetulan	-3288
▁kegelapan	-3289
▁kelaparan	-3290
▁kelihatan	-3291
▁kulkasnya	-3292
▁kurangnya	-3293
▁langitnya	-3294
▁memaafkan	-3295
▁memberiku	-3296
▁memintaku	-3297
▁mencariku	-3298
▁menendang	-3299
▁mengajari	-3300
▁menghemat	-3301
▁menikmati	-3302
▁menjalani	-3303
▁menyentuh	-3304
▁menyimpan	-3305
▁pelanggan	-3306
▁pengacara	-3307
▁pertamaku	-3308
▁pulanglah	-3309
▁sayangnya	-3310
▁selamanya	-3311
▁tenggelam	-3312
▁terdengar	-3313
▁tombolnya	-3314
▁tunggulah	-3315
▁wawancara	-3316
▁bergantung	-3317
▁berikutnya	-3318
▁berpelukan	-3319
▁departemen	-3320
▁diskusikan	-3321
▁kedatangan	-3322
▁makanannya	-3323
▁membelinya	-3324
▁membencimu	-3325
▁memintanya	-3326
▁menakutkan	-3327
▁menantikan	-3328
▁menawarkan	-3329
▁mengerikan	-3330
▁menunggang	-3331
▁menungguku	-3332
▁menunggumu	-3333
▁menyalakan	-3334
▁menyetrika	-3335
▁menyiapkan	-3336
▁seorangpun	-3337
▁seringkali	-3338
▁terpeleset	-3339
▁beritahukan	-3340
▁dikeluarkan	-3341
▁kebahagiaan	-3342
▁kesalahanku	-3343
▁memenangkan	-3344
▁meneleponku	-3345
▁perlihatkan	-3346
▁supermarket	-3347
▁terjemahkan	-3348
▁mengemudikan	-3349
▁menghasilkan	-3350
▁permasalahan	-3351
▁diterjemahkan	-3352
▁membiarkannya	-3353
▁mengatakannya	-3354
▁pertanyaannya	-3355
▁memberitahunya	-3356
▁mempercayainya	-3357
▁menjelaskannya	-3358
▁mempermainkanku	-3359
▁mengkhawatirkan	-3360
32	-3361
70	-3362
br	-3363
ce	-3364
te	-3365
ux	-3366
we	-3367
▁i	-3368
abe	-3369
abi	-3370
aif	-3371
aji	-3372
aka	-3373
ans	-3374
apr	-3375
ark	-3376
arn	-3377
ban	-3378
bau	-3379
but	-3380
cak	-3381
cok	-3382
dok	-3383
ebo	-3384
eku	-3385
enj	-3386
erd	-3387
erl	-3388
gar	-3389
gia	-3390
iam	-3391
inj	-3392
iwa	-3393
jib	-3394
kin	-3395
lar	-3396
ler	-3397
les	-3398
oak	-3399
ord	-3400
ori	-3401
ork	-3402
rab	-3403
tan	-3404
top	-3405
wai	-3406
yek	-3407
yok	-3408
▁50	-3409
▁dr	-3410
▁ek	-3411
▁fr	-3412
▁ge	-3413
▁gr	-3414
▁ik	-3415
▁kh	-3416
▁kl	-3417
▁ky	-3418
▁le	-3419
▁pu	-3420
▁sp	-3421
▁ud	-3422
adop	-3423
ahit	-3424
aian	-3425
alir	-3426
alis	-3427
apai	-3428
apak	-3429
apus	-3430
arui	-3431
atap	-3432
auan	-3433
brak	-3434
cago	-3435
ecil	-3436
egun	-3437
ejak	-3438
ekas	-3439
emah	-3440
emar	-3441
emas	-3442
emeh	-3443
erti	-3444
esid	-3445
esti	-3446
hima	-3447
ikap	-3448
inux	-3449
isah	-3450
isan	-3451
istr	-3452
itan	-3453
miah	-3454
ocor	-3455
okan	-3456
onat	-3457
onis	-3458
ontr	-3459
orwe	-3460
osis	-3461
siun	-3462
uari	-3463
uasa	-3464
uler	-3465
umam	-3466
upun	-3467
usuk	-3468
utih	-3469
yaku	-3470
▁alb	-3471
▁ali	-3472
▁atm	-3473
▁bal	-3474
▁bid	-3475
▁cac	-3476
▁chi	-3477
▁dat	-3478
▁gas	-3479
▁hen	-3480
▁hok	-3481
▁ins	-3482
▁mal	-3483
▁mei	-3484
▁mod	-3485
▁pec	-3486
▁pud	-3487
▁say	-3488
▁tag	-3489
▁taw	-3490
▁tin	-3491
▁tuk	-3492
abean	-3493
adisi	-3494
aknya	-3495
ampil	-3496
ampur	-3497
andar	-3498
antan	-3499
antis	-3500
aring	-3501
arung	-3502
atnya	-3503
elahi	-3504
elaki	-3505
elnya	-3506
enaga	-3507
engat	-3508
enuhi	-3509
epeda	-3510
erang	-3511
gitan	-3512
grafi	-3513
iakan	-3514
ibadi	-3515
iking	-3516
indar	-3517
inkan	-3518
istem	-3519
isten	-3520
itung	-3521
junya	-3522
oberi	-3523
sihan	-3524
uhkan	-3525
ukamu	-3526
umpah	-3527
uncul	-3528
untut	-3529
usias	-3530
utang	-3531
▁akta	-3532
▁alas	-3533
▁arus	-3534
▁asli	-3535
▁besi	-3536
▁biar	-3537
▁bima	-3538
▁cucu	-3539
▁diaj	-3540
▁gaun	-3541
▁gemb	-3542
▁janj	-3543
▁jiwa	-3544
▁juli	-3545
▁juni	-3546
▁kamb	-3547
▁kamp	-3548
▁kand	-3549
▁kegi	-3550
▁kena	-3551
▁koin	-3552
▁konf	-3553
▁kont	-3554
▁krit	-3555
▁kuno	-3556
▁lari	-3557
▁luas	-3558
▁lumb	-3559
▁mars	-3560
▁naif	-3561
▁nark	-3562
▁nyar	-3563
▁oper	-3564
▁otak	-3565
▁pahl	-3566
▁pega	-3567
▁perg	-3568
▁perh	-3569
▁perl	-3570
▁pisa	-3571
▁pram	-3572
▁prof	-3573
▁semi	-3574
▁sisi	-3575
▁syok	-3576
▁tali	-3577
▁tama	-3578
▁tepi	-3579
▁timb	-3580
▁truk	-3581
▁tumb	-3582
▁ubah	-3583
▁york	-3584
abaran	-3585
acunan	-3586
adopsi	-3587
agukan	-3588
akaian	-3589
angkai	-3590
apresi	-3591
awanku	-3592
ciuman	-3593
elahir	-3594
entara	-3595
esiden	-3596
iasaan	-3597
idikan	-3598
ilingi	-3599
irikan	-3600
isinya	-3601
jadian	-3602
ongkar	-3603
sinyur	-3604
uguran	-3605
ukakan	-3606
ultasi	-3607
unggah	-3608
ungkit	-3609
yarnya	-3610
▁absen	-3611
▁alice	-3612
▁angka	-3613
▁barat	-3614
▁bengk	-3615
▁berti	-3616
▁bibir	-3617
▁bocor	-3618
▁bukit	-3619
▁cerah	-3620
▁detik	-3621
▁dimas	-3622
▁dinya	-3623
▁ditak	-3624
▁donat	-3625
▁ember	-3626
▁fasih	-3627
▁fiksi	-3628
▁garpu	-3629
▁gempa	-3630
▁gugur	-3631
▁halte	-3632
▁harta	-3633
▁heran	-3634
▁idiot	-3635
▁india	-3636
▁jamur	-3637
▁jangg	-3638
▁janji	-3639
▁jejak	-3640
▁kabur	-3641
▁kaget	-3642
▁kawan	-3643
▁keban	-3644
▁kebis	-3645
▁kejam	-3646
▁kemej	-3647
▁kepon	-3648
▁kocok	-3649
▁kumis	-3650
▁kupas	-3651
▁kurus	-3652
▁kyoto	-3653
▁lemah	-3654
▁linux	-3655
▁listr	-3656
▁lusin	-3657
▁macam	-3658
▁melam	-3659
▁melet	-3660
▁memat	-3661
▁mempr	-3662
▁menet	-3663
▁meyak	-3664
▁mohon	-3665
▁norwe	-3666
▁omong	-3667
▁osaka	-3668
▁padat	-3669
▁palsu	-3670
▁panik	-3671
▁pasta	-3672
▁pegun	-3673
▁pemer	-3674
▁pengh	-3675
▁perek	-3676
▁puisi	-3677
▁pusat	-3678
▁rambu	-3679
▁sakti	-3680
▁sejam	-3681
▁singa	-3682
▁situs	-3683
▁sopan	-3684
▁sopir	-3685
▁suami	-3686
▁subuh	-3687
▁sumur	-3688
▁sushi	-3689
▁susyi	-3690
▁tebal	-3691
▁tepuk	-3692
▁tinta	-3693
▁tubuh	-3694
▁zaman	-3695
ahankan	-3696
anggang	-3697
antakan	-3698
arannya	-3699
eksinya	-3700
emangat	-3701
engaran	-3702
entilah	-3703
entrasi	-3704
erjakan	-3705
hianati	-3706
iptakan	-3707
isihkan	-3708
truktur	-3709
uangkan	-3710
ujurnya	-3711
umumkan	-3712
uruhnya	-3713
yarakat	-3714
▁akurat	-3715
▁bajumu	-3716
▁banjir	-3717
▁bensin	-3718
▁betapa	-3719
▁betina	-3720
▁bisnis	-3721
▁bonnya	-3722
▁bukuku	-3723
▁cahaya	-3724
▁cermat	-3725
▁daerah	-3726
▁diajak	-3727
▁dialah	-3728
▁dibawa	-3729
▁diluar	-3730
▁gejala	-3731
▁goreng	-3732
▁hendak	-3733
▁hitung	-3734
▁hubung	-3735
▁ilmiah	-3736
▁jamnya	-3737
▁jutaan	-3738
▁kacang	-3739
▁kaulah	-3740
▁kecoak	-3741
▁kembar	-3742
▁kencan	-3743
▁kencur	-3744
▁kerbau	-3745
▁kering	-3746
▁ketemu	-3747
▁kontak	-3748
▁langka	-3749
▁laptop	-3750
▁lelaki	-3751
▁lemari	-3752
▁lempar	-3753
▁memaks	-3754
▁memind	-3755
▁memuji	-3756
▁mengep	-3757
▁mengob	-3758
▁mengup	-3759
▁menyam	-3760
▁miskin	-3761
▁modern	-3762
▁muncul	-3763
▁obatan	-3764
▁pabean	-3765
▁parkir	-3766
▁pemuda	-3767
▁penerb	-3768
▁perahu	-3769
▁proyek	-3770
▁puncak	-3771
▁rahasi	-3772
▁reaksi	-3773
▁remnya	-3774
▁sambil	-3775
▁selagi	-3776
▁selera	-3777
▁sendok	-3778
▁senyum	-3779
▁seolah	-3780
▁sistem	-3781
▁takkan	-3782
▁tasnya	-3783
▁tembok	-3784
▁tenaga	-3785
▁terbit	-3786
▁tergel	-3787
▁terjun	-3788
▁tomlah	-3789
▁tujuan	-3790
▁tukang	-3791
▁tulang	-3792
▁ukuran	-3793
anggapan	-3794
erikatan	-3795
umpulkan	-3796
▁baiknya	-3797
▁bayinya	-3798
▁berkali	-3799
▁berlalu	-3800
▁berpeng	-3801
▁bersiap	-3802
▁cangkir	-3803
▁chicago	-3804
▁dibalik	-3805
▁dibunuh	-3806
▁diikuti	-3807
▁ditulis	-3808
▁ekonomi	-3809
▁gigitan	-3810
▁gunakan	-3811
▁gunting	-3812
▁harapan	-3813
▁harinya	-3814
▁hatinya	-3815
▁hindari	-3816
▁ilmuwan	-3817
▁jalanan	-3818
▁jantung	-3819
▁jutawan	-3820
▁kacamat	-3821
▁kakinya	-3822
▁kamulah	-3823
▁kananku	-3824
▁kantong	-3825
▁kebutuh	-3826
▁kedalam	-3827
▁kelahir	-3828
▁kelasmu	-3829
▁kelinci	-3830
▁kenalan	-3831
▁lacinya	-3832
▁lamanya	-3833
▁maafkan	-3834
▁mangkuk	-3835
▁mejanya	-3836
▁membenc	-3837
▁memperl	-3838
▁menduga	-3839
▁menekan	-3840
▁menggel	-3841
▁mengisi	-3842
▁mentega	-3843
▁menular	-3844
▁menunda	-3845
▁menyala	-3846
▁menyapa	-3847
▁meremeh	-3848
▁mobilmu	-3849
▁mukanya	-3850
▁mulutmu	-3851
▁narkoba	-3852
▁ngomong	-3853
▁nikmati	-3854
▁operasi	-3855
▁pegawai	-3856
▁pemburu	-3857
▁penjaga	-3858
▁pensiun	-3859
▁peratur	-3860
▁perawat	-3861
▁positif	-3862
▁punyaku	-3863
▁ranjang	-3864
▁salinan	-3865
▁satupun	-3866
▁sayuran	-3867
▁sekarat	-3868
▁selatan	-3869
▁sepatah	-3870
▁setahun	-3871
▁suratmu	-3872
▁tawaran	-3873
▁tekanan	-3874
▁tentara	-3875
▁tersisa	-3876
▁tongkat	-3877
▁tradisi	-3878
aksanakan	-3879
feksionis	-3880
ingungkan	-3881
▁anjingku	-3882
▁antusias	-3883
▁asuransi	-3884
▁barangmu	-3885
▁benarkah	-3886
▁berambut	-3887
▁bergumam	-3888
▁bermimpi	-3889
▁berpuasa	-3890
▁dalamnya	-3891
▁darimana	-3892
▁garamnya	-3893
▁gelasnya	-3894
▁hanyalah	-3895
▁haruskah	-3896
▁insinyur	-3897
▁karangan	-3898
▁kegiatan	-3899
▁kejadian	-3900
▁komentar	-3901
▁kriminal	-3902
▁kucingku	-3903
▁kursinya	-3904
▁masuknya	-3905
▁memenuhi	-3906
▁menangan	-3907
▁mengalir	-3908
▁mengenai	-3909
▁mengikut	-3910
▁menuruni	-3911
▁menyesal	-3912
▁norwegia	-3913
▁pasangan	-3914
▁pelajari	-3915
▁pembunuh	-3916
▁penduduk	-3917
▁perasaan	-3918
▁presiden	-3919
▁pulpenku	-3920
▁rasional	-3921
▁religius	-3922
▁saljunya	-3923
▁sedingin	-3924
▁sekurang	-3925
▁selembar	-3926
▁semangat	-3927
▁sepatuku	-3928
▁setinggi	-3929
▁stroberi	-3930
▁tempatmu	-3931
▁terampil	-3932
▁terjatuh	-3933
▁ternyata	-3934
▁tersedia	-3935
▁tertulis	-3936
▁teruslah	-3937
▁tetaplah	-3938
▁tidakkah	-3939
▁tidaklah	-3940
▁tunangan	-3941
▁undangan	-3942
eritahukan	-3943
timbangkan	-3944
▁alasannya	-3945
▁anggurnya	-3946
▁apartemen	-3947
▁berciuman	-3948
▁berdering	-3949
▁berkelahi	-3950
▁berlanjut	-3951
▁bersamaku	-3952
▁bersandar	-3953
▁bersepeda	-3954
▁bertambah	-3955
▁bertarung	-3956
▁ceritakan	-3957
▁ceritanya	-3958
▁dibongkar	-3959
▁diketahui	-3960
▁ditinggal	-3961
▁jawabanmu	-3962
▁jurusanmu	-3963
▁kebiasaan	-3964
▁keinginan	-3965
▁kepadanya	-3966
▁keracunan	-3967
▁kesabaran	-3968
▁ketiaknya	-3969
▁kukatakan	-3970
▁makananmu	-3971
▁masalahku	-3972
▁membangun	-3973
▁menangkap	-3974
▁mengantuk	-3975
▁menggangg	-3976
▁menggigit	-3977
▁menghadap	-3978
▁menyakiti	-3979
▁nampaknya	-3980
▁pandangan	-3981
▁pemasaran	-3982
▁pembohong	-3983
▁pengemudi	-3984
▁penggemar	-3985
▁pertemuan	-3986
▁pidatonya	-3987
▁pikiranmu	-3988
▁piringnya	-3989
▁rencanamu	-3990
▁sampaikan	-3991
▁sampingku	-3992
▁saudaraku	-3993
▁sementara	-3994
▁singkatan	-3995
▁sungguhan	-3996
▁telanjang	-3997
▁tempurung	-3998
▁tentangmu	-3999
▁terhindar	-4000
▁untungnya	-4001
angkatannya	-4002
▁berantakan	-4003
▁berguguran	-4004
▁berpakaian	-4005
▁berpikiran	-4006
▁bertingkah	-4007
▁dinyatakan	-4008
▁kebanyakan	-4009
▁kebersihan	-4010
▁kendalikan	-4011
▁masyarakat	-4012
▁memasukkan	-4013
▁memberinya	-4014
▁membukakan	-4015
▁membunuhmu	-4016
▁memelihara	-4017
▁memercayai	-4018
▁mencarikan	-4019
▁mendirikan	-4020
▁mengadakan	-4021
▁mengandung	-4022
▁mengapresi	-4023
▁menggambar	-4024
▁mengganggu	-4025
▁menghubung	-4026
▁mengunggah	-4027
▁mengunjung	-4028
▁menyuruhmu	-4029
▁pakaiannya	-4030
▁pegunungan	-4031
▁pemerintah	-4032
▁pendidikan	-4033
▁pengalaman	-4034
▁pentingnya	-4035
▁perasaanmu	-4036
▁permintaan	-4037
▁sejujurnya	-4038
▁tergantung	-4039
▁tertangkap	-4040
▁beranggapan	-4041
▁berhentilah	-4042
▁dihancurkan	-4043
▁keputusanmu	-4044
▁khawatirkan	-4045
▁melanjutkan	-4046
▁melupakanku	-4047
▁memahaminya	-4048
▁memanggilmu	-4049
▁membayarnya	-4050
▁membujuknya	-4051
▁memengaruhi	-4052
▁memperbarui	-4053
▁menambahkan	-4054
▁menciptakan	-4055
▁meneleponmu	-4056
▁mengagumkan	-4057
▁mengajarkan	-4058
▁mengejutkan	-4059
▁menolongnya	-4060
▁menyakitimu	-4061
▁menyanyikan	-4062
▁menyisihkan	-4063
▁pekerjaanku	-4064
▁pemandangan	-4065
▁pendapatnya	-4066
▁penerbangan	-4067
▁perempuanku	-4068
▁diselamatkan	-4069
▁diselesaikan	-4070
▁kebenarannya	-4071
▁melupakannya	-4072
▁membayangkan	-4073
▁memberikanmu	-4074
▁menertawakan	-4075
▁menggantikan	-4076
▁mengkhianati	-4077
▁mengumpulkan	-4078
▁menyeberangi	-4079
▁peraturannya	-4080
▁perempuannya	-4081
▁perfeksionis	-4082
▁perserikatan	-4083
▁berkonsultasi	-4084
▁berpengalaman	-4085
▁diperbolehkan	-4086
▁mempercayaimu	-4087
▁mengendalikan	-4088
▁menghancurkan	-4089
▁mengizinkanku	-4090
▁memperkenalkan	-4091
▁mendengarkanku	-4092
▁mengandalkanmu	-4093
▁mengerjakannya	-4094
▁mengingatkanku	-4095
▁meninggalkannya	-4096
03	-4097
88	-4098
bb	-4099
de	-4100
ei	-4101
fo	-4102
ho	-4103
le	-4104
me	-4105
oe	-4106
pr	-4107
wi	-4108
xf	-4109
▁u	-4110
▁x	-4111
abu	-4112
aga	-4113
ahi	-4114
akt	-4115
aul	-4116
awa	-4117
cor	-4118
dag	-4119
den	-4120
ebr	-4121
ept	-4122
fat	-4123
fon	-4124
gae	-4125
gen	-4126
gna	-4127
ham	-4128
iah	-4129
ift	-4130
iks	-4131
ino	-4132
inv	-4133
iol	-4134
iti	-4135
ius	-4136
jer	-4137
jub	-4138
lop	-4139
oko	-4140
ono	-4141
otr	-4142
pam	-4143
pas	-4144
ran	-4145
rol	-4146
tra	-4147
tuj	-4148
tum	-4149
uit	-4150
uki	-4151
val	-4152
war	-4153
wuj	-4154
yat	-4155
yuh	-4156
yut	-4157
zat	-4158
▁21	-4159
▁22	-4160
▁25	-4161
▁28	-4162
▁60	-4163
▁82	-4164
▁ah	-4165
▁aj	-4166
▁aw	-4167
▁ef	-4168
▁el	-4169
▁gu	-4170
▁hi	-4171
▁ij	-4172
▁oh	-4173
▁op	-4174
▁sk	-4175
▁un	-4176
▁up	-4177
aati	-4178
abar	-4179
abot	-4180
acam	-4181
acun	-4182
adah	-4183
adam	-4184
agam	-4185
aido	-4186
ajai	-4187
ajat	-4188
ajut	-4189
aket	-4190
alat	-4191
amen	-4192
anan	-4193
ango	-4194
anto	-4195
armu	-4196
aruk	-4197
asar	-4198
asta	-4199
asuh	-4200
asuk	-4201
ater	-4202
disi	-4203
ebih	-4204
eceh	-4205
edak	-4206
edip	-4207
egal	-4208
eget	-4209
eher	-4210
ekom	-4211
ekuk	-4212
elaj	-4213
elil	-4214
elku	-4215
elom	-4216
emis	-4217
eput	-4218
eser	-4219
esif	-4220
etas	-4221
etis	-4222
foto	-4223
giku	-4224
hana	-4225
hiri	-4226
idal	-4227
ikar	-4228
ikot	-4229
iman	-4230
imba	-4231
ipas	-4232
irim	-4233
itab	-4234
jaks	-4235
kuat	-4236
laus	-4237
mpor	-4238
okus	-4239
omba	-4240
oper	-4241
opos	-4242
oror	-4243
osur	-4244
oton	-4245
port	-4246
sial	-4247
uaya	-4248
ugat	-4249
ulik	-4250
umor	-4251
umsi	-4252
unik	-4253
unus	-4254
usir	-4255
utin	-4256
yian	-4257
▁199	-4258
▁abu	-4259
▁agr	-4260
▁aks	-4261
▁amb	-4262
▁amp	-4263
▁aut	-4264
▁bac	-4265
▁bed	-4266
▁bim	-4267
▁bun	-4268
▁cab	-4269
▁cek	-4270
▁cob	-4271
▁col	-4272
▁cuc	-4273
▁deb	-4274
▁ent	-4275
▁fac	-4276
▁fis	-4277
▁geo	-4278
▁gim	-4279
▁gub	-4280
▁hak	-4281
▁hel	-4282
▁jal	-4283
▁jan	-4284
▁jog	-4285
▁jup	-4286
▁kad	-4287
▁kim	-4288
▁kre	-4289
▁kro	-4290
▁lam	-4291
▁lil	-4292
▁lim	-4293
▁mam	-4294
▁may	-4295
▁mim	-4296
▁nab	-4297
▁naf	-4298
▁nap	-4299
▁40	-4300
aids	-4301
loji	-4302
▁nil	-4303
▁nyi	-4304
▁org	-4305
▁oxf	-4306
▁pai	-4307
▁pam	-4308
▁pbb	-4309
▁pep	-4310
▁pom	-4311
▁puk	-4312
▁ras	-4313
▁reb	-4314
▁rel	-4315
▁rom	-4316
▁rup	-4317
▁sew	-4318
▁sir	-4319
▁tab	-4320
▁tir	-4321
▁top	-4322
▁tub	-4323
▁tud	-4324
▁vas	-4325
▁waj	-4326
▁web	-4327
▁wis	-4328
▁yun	-4329
aikat	-4330
ailah	-4331
alang	-4332
alist	-4333
ampok	-4334
andai	-4335
angku	-4336
anian	-4337
anjak	-4338
anjil	-4339
ankas	-4340
antam	-4341
antas	-4342
antun	-4343
apura	-4344
araan	-4345
arahi	-4346
arian	-4347
arnai	-4348
askan	-4349
asnya	-4350
ausan	-4351
ayaan	-4352
egera	-4353
ekerj	-4354
eksek	-4355
eluar	-4356
emani	-4357
ender	-4358
enter	-4359
entur	-4360
erani	-4361
ernya	-4362
eting	-4363
idiki	-4364
ikian	-4365
ikmah	-4366
impin	-4367
incir	-4368
jabat	-4369
jahit	-4370
jajar	-4371
kaido	-4372
kanya	-4373
kulat	-4374
menya	-4375
muara	-4376
oalan	-4377
odium	-4378
olong	-4379
ompok	-4380
ontak	-4381
ontek	-4382
orgol	-4383
osial	-4384
payan	-4385
sitif	-4386
tugas	-4387
ukses	-4388
uksit	-4389
ukung	-4390
ulans	-4391
ulasi	-4392
uling	-4393
umbus	-4394
umlah	-4395
umpul	-4396
unduh	-4397
ungku	-4398
uyung	-4399
corn	-4400
▁632	-4401
▁iya	-4402
▁ufo	-4403
aktir	-4404
ebook	-4405
injal	-4406
usaji	-4407
vatif	-4408
wajib	-4409
wujud	-4410
yakah	-4411
yukur	-4412
▁1888	-4413
▁adat	-4414
▁adil	-4415
▁akun	-4416
▁alah	-4417
▁area	-4418
▁arti	-4419
▁asam	-4420
▁asap	-4421
▁atap	-4422
▁baga	-4423
▁bisu	-4424
▁brad	-4425
▁camp	-4426
▁data	-4427
▁dibi	-4428
▁diet	-4429
▁dita	-4430
▁eksp	-4431
▁esok	-4432
▁faks	-4433
▁gamb	-4434
▁gamp	-4435
▁gesa	-4436
▁grup	-4437
▁hamp	-4438
▁impi	-4439
▁inci	-4440
▁jurn	-4441
▁kain	-4442
▁karb	-4443
▁kebi	-4444
▁kees	-4445
▁keku	-4446
▁kilo	-4447
▁klub	-4448
▁kode	-4449
▁koki	-4450
▁kura	-4451
▁laci	-4452
▁lasa	-4453
▁lift	-4454
▁mail	-4455
▁mera	-4456
▁merd	-4457
▁meri	-4458
▁mimp	-4459
▁mint	-4460
▁nept	-4461
▁paus	-4462
▁perd	-4463
▁pipi	-4464
▁rabi	-4465
▁rata	-4466
▁reda	-4467
▁sewa	-4468
▁siku	-4469
▁sing	-4470
▁stop	-4471
▁suci	-4472
▁teks	-4473
▁ular	-4474
▁ungu	-4475
▁unta	-4476
▁xilo	-4477
▁yoga	-4478
abotan	-4479
adikan	-4480
aduhan	-4481
ajengk	-4482
aketmu	-4483
alilah	-4484
alitas	-4485
amaian	-4486
anduan	-4487
andung	-4488
anfaat	-4489
anggar	-4490
angkut	-4491
angnya	-4492
aninya	-4493
arawan	-4494
asikan	-4495
atihan	-4496
atiwan	-4497
ecuali	-4498
eganya	-4499
▁aids	-4500
elawar	-4501
emanan	-4502
engang	-4503
enggot	-4504
engkal	-4505
enjara	-4506
epatah	-4507
erdeka	-4508
erhana	-4509
grafer	-4510
hiasan	-4511
ibutan	-4512
incang	-4513
inilah	-4514
intasi	-4515
isahan	-4516
likasi	-4517
oduksi	-4518
oleksi	-4519
ontrol	-4520
oposal	-4521
oshima	-4522
patuhi	-4523
uaskan	-4524
ubahan	-4525
ujanan	-4526
ujuran	-4527
ukanku	-4528
umpang	-4529
uncang	-4530
ungkus	-4531
usakan	-4532
wancar	-4533
▁akrab	-4534
▁aktif	-4535
▁alami	-4536
▁album	-4537
▁badut	-4538
▁bakar	-4539
▁banjo	-4540
▁bapak	-4541
▁batas	-4542
▁bekas	-4543
▁berda	-4544
▁biduk	-4545
▁botak	-4546
▁buaya	-4547
▁bukti	-4548
▁cemas	-4549
▁ceria	-4550
▁claus	-4551
▁debat	-4552
▁demam	-4553
▁deras	-4554
▁dilah	-4555
▁diser	-4556
▁domba	-4557
▁esper	-4558
▁festi	-4559
▁finan	-4560
▁fokus	-4561
▁gagap	-4562
▁ganti	-4563
▁gemar	-4564
▁horor	-4565
▁humor	-4566
▁idiom	-4567
▁impor	-4568
▁intan	-4569
▁jamku	-4570
▁jenuh	-4571
▁kamis	-4572
▁kapas	-4573
▁kasir	-4574
▁kasus	-4575
▁kejah	-4576
▁kenya	-4577
▁keran	-4578
▁keren	-4579
▁kidal	-4580
▁kipas	-4581
▁koala	-4582
▁korek	-4583
▁lanta	-4584
▁lebah	-4585
▁lebar	-4586
▁leher	-4587
▁letak	-4588
▁lezat	-4589
▁lokal	-4590
▁macet	-4591
▁makin	-4592
▁malah	-4593
▁masak	-4594
▁media	-4595
▁menah	-4596
▁menda	-4597
▁mengu	-4598
▁mesti	-4599
▁naiki	-4600
▁nakut	-4601
▁ngapa	-4602
▁nilai	-4603
▁nunda	-4604
▁organ	-4605
▁pagar	-4606
▁papan	-4607
▁pecah	-4608
▁pemak	-4609
▁peril	-4610
▁putar	-4611
▁putra	-4612
▁putus	-4613
▁rebus	-4614
▁receh	-4615
▁retak	-4616
▁ribut	-4617
▁rimba	-4618
▁roger	-4619
▁rokok	-4620
▁rutin	-4621
▁sabuk	-4622
▁sabun	-4623
▁sadar	-4624
▁salam	-4625
▁salon	-4626
▁sampo	-4627
▁santa	-4628
▁segar	-4629
▁sejen	-4630
▁seksi	-4631
▁selai	-4632
▁semak	-4633
▁sikap	-4634
▁sikat	-4635
▁sport	-4636
▁supir	-4637
▁surga	-4638
▁suruh	-4639
▁tango	-4640
▁tawar	-4641
▁tegas	-4642
▁teori	-4643
▁terow	-4644
▁tiada	-4645
▁timur	-4646
▁tingg	-4647
▁tomat	-4648
▁turut	-4649
▁udang	-4650
▁usaha	-4651
▁veget	-4652
▁wajar	-4653
▁warga	-4654
afalkan	-4655
ajaiban	-4656
akannya	-4657
alahkan	-4658
ampilan	-4659
bangkan	-4660
caranya	-4661
ebaskan	-4662
ekomend	-4663
elahkan	-4664
elajahi	-4665
eliling	-4666
eluaran	-4667
emanimu	-4668
enangan	-4669
engerti	-4670
entukan	-4671
eputasi	-4672
eringat	-4673
esional	-4674
etahuan	-4675
gunakan	-4676
ibatkan	-4677
ihannya	-4678
isahkan	-4679
izinkan	-4680
jaksana	-4681
kulator	-4682
obohkan	-4683
onomian	-4684
onsumsi	-4685
siapkan	-4686
uksesan	-4687
unikasi	-4688
unjukan	-4689
▁ajaran	-4690
▁amplop	-4691
▁anggap	-4692
▁arloji	-4693
▁atasan	-4694
▁ayolah	-4695
▁bandel	-4696
▁bangku	-4697
▁bannya	-4698
▁bareng	-4699
▁baruku	-4700
▁basket	-4701
▁batang	-4702
▁bawang	-4703
▁berapi	-4704
▁berken	-4705
▁bertep	-4706
▁boling	-4707
▁brosur	-4708
▁buahan	-4709
▁caraku	-4710
▁caramu	-4711
▁celana	-4712
▁dayung	-4713
▁diatur	-4714
▁dicuci	-4715
▁diduga	-4716
▁disana	-4717
▁diungk	-4718
▁dollar	-4719
▁energi	-4720
▁enggak	-4721
▁enggan	-4722
▁fisika	-4723
▁fungsi	-4724
▁gajian	-4725
▁galeri	-4726
▁ganggu	-4727
▁ganjil	-4728
▁gigiku	-4729
▁gimana	-4730
▁ginjal	-4731
▁hancur	-4732
▁hidung	-4733
▁hikmah	-4734
▁jagung	-4735
▁jantan	-4736
▁jenewa	-4737
▁joging	-4738
▁kakimu	-4739
▁katamu	-4740
▁kemeja	-4741
▁kental	-4742
▁kesana	-4743
▁ketiga	-4744
▁koloni	-4745
▁kompas	-4746
▁kontes	-4747
▁kooper	-4748
▁kostum	-4749
▁kuatir	-4750
▁kuenya	-4751
▁kukira	-4752
▁kukuku	-4753
▁kuliah	-4754
▁lamaku	-4755
▁lamamu	-4756
▁lorong	-4757
▁masker	-4758
▁matang	-4759
▁melodi	-4760
▁memain	-4761
▁mempek	-4762
▁menara	-4763
▁mencuc	-4764
▁mendek	-4765
▁mengaw	-4766
▁mengil	-4767
▁menumb	-4768
▁menyap	-4769
▁menyia	-4770
▁menyus	-4771
▁miknya	-4772
▁miliki	-4773
▁miller	-4774
▁mukamu	-4775
▁mundur	-4776
▁nyaris	-4777
▁oxford	-4778
▁pahami	-4779
▁pantas	-4780
▁pasien	-4781
▁pelaku	-4782
▁perdag	-4783
▁permen	-4784
▁persis	-4785
▁puding	-4786
▁rebung	-4787
▁reggae	-4788
▁remaja	-4789
▁resiko	-4790
▁ribuan	-4791
▁rumpun	-4792
▁santun	-4793
▁sarang	-4794
▁satpam	-4795
▁sejati	-4796
▁sekuat	-4797
▁semang	-4798
▁sembuh	-4799
▁seumur	-4800
▁sirkus	-4801
▁sosial	-4802
▁suasan	-4803
▁sukses	-4804
▁swasta	-4805
▁tebing	-4806
▁tehnya	-4807
▁teknis	-4808
▁temani	-4809
▁tesnya	-4810
▁timbal	-4811
▁tipuan	-4812
▁uangku	-4813
▁urusan	-4814
▁viking	-4815
▁yunani	-4816
adwalkan	-4817
ahayakan	-4818
andalkan	-4819
andingan	-4820
angkatan	-4821
arkannya	-4822
ayangkan	-4823
eksekusi	-4824
elombang	-4825
embangan	-4826
impannya	-4827
obaannya	-4828
olahraga	-4829
tahankan	-4830
umpahkan	-4831
undurkan	-4832
untungan	-4833
wancarai	-4834
▁agresif	-4835
▁alkitab	-4836
▁aprikot	-4837
▁asisten	-4838
▁awalnya	-4839
▁bacalah	-4840
▁bagilah	-4841
▁baiklah	-4842
▁bajunya	-4843
▁banknya	-4844
▁bauksit	-4845
▁belanja	-4846
▁bengkok	-4847
▁berburu	-4848
▁bergaul	-4849
▁berjudi	-4850
▁berlian	-4851
▁bersiul	-4852
▁bertiga	-4853
▁bimbang	-4854
▁brankas	-4855
▁bukanya	-4856
▁cobalah	-4857
▁condong	-4858
▁datanya	-4859
▁depanku	-4860
▁derajat	-4861
▁diambil	-4862
▁dibakar	-4863
▁dibayar	-4864
▁dibuang	-4865
▁dididik	-4866
▁dihapus	-4867
▁diimpor	-4868
▁dilihat	-4869
▁dimasak	-4870
▁diminta	-4871
▁diretas	-4872
▁galaksi	-4873
▁gampang	-4874
▁gembira	-4875
▁gerhana	-4876
▁jagalah	-4877
▁jaketmu	-4878
▁janggut	-4879
▁janjimu	-4880
▁januari	-4881
▁jauhkan	-4882
▁jupiter	-4883
▁kakakmu	-4884
▁kakekku	-4885
▁kalinya	-4886
▁kambing	-4887
▁kampung	-4888
▁kandang	-4889
▁kantung	-4890
▁kapalku	-4891
▁katapun	-4892
▁kawanku	-4893
▁kelasku	-4894
▁kemauan	-4895
▁kerasmu	-4896
▁kewajib	-4897
▁koleksi	-4898
▁kondisi	-4899
▁kreatif	-4900
▁krimnya	-4901
▁kroasia	-4902
▁kulihat	-4903
▁kumbang	-4904
▁laporan	-4905
▁lasagna	-4906
▁listrik	-4907
▁lukanya	-4908
▁mainkan	-4909
▁mamalia	-4910
▁manajer	-4911
▁manapun	-4912
▁meeting	-4913
▁melatih	-4914
▁meledak	-4915
▁meletus	-4916
▁melipat	-4917
▁mematok	-4918
▁memerah	-4919
▁memohon	-4920
▁memulai	-4921
▁menaati	-4922
▁menahan	-4923
▁menatap	-4924
▁mencair	-4925
▁menerus	-4926
▁menetap	-4927
▁menikam	-4928
▁menilai	-4929
▁menyapu	-4930
▁merajut	-4931
▁merebus	-4932
▁mimisan	-4933
▁monoton	-4934
▁nasinya	-4935
▁negatif	-4936
▁novelis	-4937
▁pacarmu	-4938
▁pamanku	-4939
▁pemalas	-4940
▁pemandu	-4941
▁pencuri	-4942
▁pepatah	-4943
▁perhati	-4944
▁perokok	-4945
▁perutku	-4946
▁pisaumu	-4947
▁popcorn	-4948
▁pribadi	-4949
▁pukulan	-4950
▁realist	-4951
▁reguler	-4952
▁relatif	-4953
▁rupanya	-4954
▁saatnya	-4955
▁samping	-4956
▁sebelas	-4957
▁sebesar	-4958
▁sebulan	-4959
▁sejajar	-4960
▁selusin	-4961
▁semacam	-4962
▁seragam	-4963
▁setidak	-4964
▁siangmu	-4965
▁singkat	-4966
▁suamiku	-4967
▁suamimu	-4968
▁susunya	-4969
▁tagihan	-4970
▁tangkap	-4971
▁terbaru	-4972
▁terdiam	-4973
▁tergesa	-4974
▁terusan	-4975
▁tetangg	-4976
▁tidurku	-4977
▁tiketku	-4978
▁tingkah	-4979
▁topinya	-4980
▁traktir	-4981
▁trompet	-4982
▁tuduhan	-4983
▁tugasmu	-4984
▁umurnya	-4985
▁upacara	-4986
▁wajahku	-4987
▁waktumu	-4988
▁xilofon	-4989
ajengking	-4990
alahannya	-4991
anfaatkan	-4992
encanakan	-4993
iraukanku	-4994
ungkinkan	-4995
▁alamatmu	-4996
▁ambulans	-4997
▁andalkan	-4998
▁anggapan	-4999
▁angkanya	-5000
▁aplikasi	-5001
▁bagaikan	-5002
▁beranjak	-5003
▁berbagai	-5004
▁bercukur	-5005
▁berdebat	-5006
▁berfikir	-5007
▁bergeser	-5008
▁berjabat	-5009
▁berjuang	-5010
▁berkedip	-5011
▁berkemah	-5012
▁bermuara	-5013
▁bernapas	-5014
▁berpisah	-5015
▁berputar	-5016
▁bersabar	-5017
▁bertugas	-5018
▁berutang	-5019
▁betulkan	-5020
▁bilangan	-5021
▁botolnya	-5022
▁bubungan	-5023
▁bunyinya	-5024
▁cacatnya	-5025
▁campuran	-5026
▁columbus	-5027
▁demikian	-5028
▁depannya	-5029
▁diborgol	-5030
▁diparkir	-5031
▁dipatuhi	-5032
▁dipegang	-5033
▁disengat	-5034
▁diterima	-5035
▁doktermu	-5036
▁dompetku	-5037
▁duduklah	-5038
▁facebook	-5039
▁festival	-5040
▁geografi	-5041
▁golongan	-5042
▁hokkaido	-5043
▁ingatlah	-5044
▁jadwalku	-5045
▁jelaskan	-5046
▁jurnalis	-5047
▁kakaknya	-5048
▁kalender	-5049
▁kantorku	-5050
▁kapankah	-5051
▁keesokan	-5052
▁kehausan	-5053
▁kekuatan	-5054
▁kelasnya	-5055
▁kelompok	-5056
▁kemejaku	-5057
▁kenaikan	-5058
▁kencanmu	-5059
▁kerjakan	-5060
▁kesepian	-5061
▁kesukaan	-5062
▁korannya	-5063
▁kotaknya	-5064
▁kritikan	-5065
▁kudengar	-5066
▁kutunggu	-5067
▁lilinnya	-5068
▁makanlah	-5069
▁malaikat	-5070
▁malamnya	-5071
▁memarahi	-5072
▁memarkir	-5073
▁memboleh	-5074
▁memegang	-5075
▁memeriks	-5076
▁menambah	-5077
▁mendarat	-5078
▁mengajak	-5079
▁mengayuh	-5080
▁mengelap	-5081
▁mengetik	-5082
▁mengupas	-5083
▁mengusir	-5084
▁menuntut	-5085
▁menyerap	-5086
▁mewarnai	-5087
▁mintalah	-5088
▁neneknya	-5089
▁neptunus	-5090
▁november	-5091
▁pahlawan	-5092
▁pakailah	-5093
▁pecahkan	-5094
▁pejamkan	-5095
▁pemimpin	-5096
▁pengemis	-5097
▁penjelas	-5098
▁penyebab	-5099
▁perenang	-5100
▁pergilah	-5101
▁perginya	-5102
▁perlengk	-5103
▁pinjaman	-5104
▁pohonnya	-5105
▁polandia	-5106
▁populasi	-5107
▁produksi	-5108
▁proposal	-5109
▁romantis	-5110
▁sebatang	-5111
▁sejumlah	-5112
▁sensitif	-5113
▁sepatumu	-5114
▁sepedamu	-5115
▁serangan	-5116
▁sesegera	-5117
▁susahnya	-5118
▁takutkan	-5119
▁tanahnya	-5120
▁tanggung	-5121
▁tanyakan	-5122
▁tembikar	-5123
▁tempayan	-5124
▁tenggara	-5125
▁tentunya	-5126
▁terbatas	-5127
▁terkecil	-5128
▁terkesan	-5129
▁terlebih	-5130
▁termasuk	-5131
▁terminal	-5132
▁terpaksa	-5133
▁terpilih	-5134
▁tertular	-5135
▁terulang	-5136
▁terwujud	-5137
▁tidurlah	-5138
▁tindakan	-5139
▁tumbuhan	-5140
▁urusanmu	-5141
lihatannya	-5142
untunganku	-5143
▁akibatnya	-5144
▁astrologi	-5145
▁bangunlah	-5146
▁barangnya	-5147
▁beginilah	-5148
▁begitulah	-5149
▁beraninya	-5150
▁berbaring	-5151
▁bercerita	-5152
▁berkemudi	-5153
▁berkencan	-5154
▁berondong	-5155
▁bersamamu	-5156
▁bersyukur	-5157
▁bijaksana	-5158
▁diajarkan	-5159
▁diberikan	-5160
▁dihindari	-5161
▁dihormati	-5162
▁diizinkan	-5163
▁dinikmati	-5164
▁dipenjara	-5165
▁diumumkan	-5166
▁esperanto	-5167
▁finansial	-5168
▁gejalanya	-5169
▁harapanmu	-5170
▁hidungnya	-5171
▁inggrismu	-5172
▁kantongmu	-5173
▁kapasitas	-5174
▁keajaiban	-5175
▁kebijakan	-5176
▁kebutuhan	-5177
▁kecanduan	-5178
▁kegaduhan	-5179
▁kehujanan	-5180
▁kejahatan	-5181
▁kejujuran	-5182
▁kelelawar	-5183
▁keluarkan	-5184
▁keluarnya	-5185
▁kembalian	-5186
▁kemerdeka	-5187
▁kendaraan	-5188
▁keributan	-5189
▁kerusakan	-5190
▁konsernya	-5191
▁kuberikan	-5192
▁lanjutkan	-5193
▁lantainya	-5194
▁masalahmu	-5195
▁melainkan	-5196
▁melanggar	-5197
▁melintasi	-5198
▁melukaimu	-5199
▁membilang	-5200
▁memelukku	-5201
▁memintamu	-5202
▁memuaskan	-5203
▁menampung	-5204
▁menangani	-5205
▁menasihat	-5206
▁menciummu	-5207
▁mendingin	-5208
▁mengagumi	-5209
▁menggaruk	-5210
▁mengharap	-5211
▁mengimpor	-5212
▁mengobrol	-5213
▁mengunduh	-5214
▁menyambut	-5215
▁menyayang	-5216
▁menyetuju	-5217
▁menyirami	-5218
▁menyontek	-5219
▁meragukan	-5220
▁mericanya	-5221
▁nabatiwan	-5222
▁panggilan	-5223
▁pelayanan	-5224
▁pemberani	-5225
▁penderita	-5226
▁pensilnya	-5227
▁perabotan	-5228
▁perangkat	-5229
▁perbedaan	-5230
▁perbuatan	-5231
▁perhiasan	-5232
▁perkataan	-5233
▁persoalan	-5234
▁pertolong	-5235
▁perubahan	-5236
▁pinjamkan	-5237
▁politikus	-5238
▁pramusaji	-5239
▁prancisku	-5240
▁sarapanmu	-5241
▁saudaramu	-5242
▁sederhana	-5243
▁sejarawan	-5244
▁sekalipun	-5245
▁sekolahmu	-5246
▁singapura	-5247
▁tercantik	-5248
▁terganggu	-5249
▁tergenang	-5250
▁tertabrak	-5251
▁toiletnya	-5252
▁bandaranya	-5253
▁belajarlah	-5254
▁belakangmu	-5255
▁berbincang	-5256
▁berguncang	-5257
▁berjenggot	-5258
▁beruangnya	-5259
▁dibatalkan	-5260
▁dibutuhkan	-5261
▁dieksekusi	-5262
▁dilahirkan	-5263
▁dimengerti	-5264
▁dirobohkan	-5265
▁disalahkan	-5266
▁dokumennya	-5267
▁dokumenter	-5268
▁fotografer	-5269
▁inggrisnya	-5270
▁instruktur	-5271
▁kacamataku	-5272
▁kalkulator	-5273
▁kebisingan	-5274
▁kecantikan	-5275
▁kedinginan	-5276
▁kembalilah	-5277
▁kesuksesan	-5278
▁keuntungan	-5279
▁kooperatif	-5280
▁koreksinya	-5281
▁lumbungnya	-5282
▁mangkuknya	-5283
▁melelahkan	-5284
▁memahamiku	-5285
▁memakannya	-5286
▁memaksanya	-5287
▁memastikan	-5288
▁membawanya	-5289
▁membenciku	-5290
▁membuatkan	-5291
▁membukanya	-5292
▁memejamkan	-5293
▁memeluknya	-5294
▁memperoleh	-5295
▁menahannya	-5296
▁menemanimu	-5297
▁mengadopsi	-5298
▁mengakhiri	-5299
▁mengangguk	-5300
▁menghadapi	-5301
▁menghitung	-5302
▁mengiringi	-5303
▁mengoleksi	-5304
▁mengurangi	-5305
▁menteganya	-5306
▁menuangkan	-5307
▁menyelamat	-5308
▁menyukaimu	-5309
▁meremehkan	-5310
▁meyakinkan	-5311
▁minumannya	-5312
▁panggilkan	-5313
▁pendapatku	-5314
▁pengaturan	-5315
▁pertemanan	-5316
▁pikirannya	-5317
▁punggungku	-5318
▁ranjangnya	-5319
▁ruangannya	-5320
▁seluruhnya	-5321
▁semestinya	-5322
▁suasananya	-5323
▁tercengang	-5324
▁tergeletak	-5325
▁terowongan	-5326
▁terpanjang	-5327
▁tersandung	-5328
▁tersangkut	-5329
▁tinggallah	-5330
▁tulisannya	-5331
▁vegetarian	-5332
▁berkeliling	-5333
▁berkeringat	-5334
▁berolahraga	-5335
▁dijadwalkan	-5336
▁dipengaruhi	-5337
▁diungkapkan	-5338
▁kemampuanku	-5339
▁keponakanku	-5340
▁kesalahanmu	-5341
▁konservatif	-5342
▁mataharinya	-5343
▁membantunya	-5344
▁membatalkan	-5345
▁membiasakan	-5346
▁meminjamkan	-5347
▁memproduksi	-5348
▁mencintaiku	-5349
▁menembakkan	-5350
▁mengajarimu	-5351
▁mengantarmu	-5352
▁mengejarnya	-5353
▁mengeluhkan	-5354
▁menggantung	-5355
▁menggelikan	-5356
▁menghindari	-5357
▁menghormati	-5358
▁mengikutiku	-5359
▁mengingatmu	-5360
▁mengirimiku	-5361
▁mengizinkan	-5362
▁mengonsumsi	-5363
▁menikahinya	-5364
▁menjawabnya	-5365
▁menumbuhkan	-5366
▁menyediakan	-5367
▁menyelidiki	-5368
▁menyemangat	-5369
▁menyerahkan	-5370
▁pelajarilah	-5371
▁pendengaran	-5372
▁pengeluaran	-5373
▁pengetahuan	-5374
▁peningkatan	-5375
▁perdagangan	-5376
▁perkataanmu	-5377
▁pertunjukan	-5378
▁profesional	-5379
▁punggungnya	-5380
▁sembunyikan	-5381
▁televisinya	-5382
▁bergelombang	-5383
▁dipermalukan	-5384
▁ditinggalkan	-5385
▁kalajengking	-5386
▁kelahirannya	-5387
▁melaksanakan	-5388
▁melindungimu	-5389
▁memainkannya	-5390
▁memanfaatkan	-5391
▁memanggilnya	-5392
▁membahayakan	-5393
▁membawakanku	-5394
▁membelikanmu	-5395
▁memberikanku	-5396
▁membiarkanmu	-5397
▁membuatkanmu	-5398
▁memercayaiku	-5399
▁memercayaimu	-5400
▁memperlambat	-5401
▁memungkinkan	-5402
▁menemukannya	-5403
▁menerbangkan	-5404
▁mengandalkan	-5405
▁mengecewakan	-5406
▁mengelilingi	-5407
▁mengganggumu	-5408
▁mengingatkan	-5409
▁mengundangku	-5410
▁mengundurkan	-5411
▁menyadarinya	-5412
▁menyentuhnya	-5413
▁menyimpannya	-5414
▁merencanakan	-5415
▁perbedaannya	-5416
▁percobaannya	-5417
▁perekonomian	-5418
▁perkembangan	-5419
▁pertandingan	-5420
▁pertanyaanmu	-5421
▁antusiasmenya	-5422
▁kuberitahukan	-5423
▁membelikannya	-5424
▁membingungkan	-5425
▁memikirkannya	-5426
▁meminjamkanmu	-5427
▁mempekerjakan	-5428
▁mempermainkan	-5429
▁mempersiapkan	-5430
▁menantikannya	-5431
▁mengakibatkan	-5432
▁menghilangkan	-5433
▁mengunjungiku	-5434
▁menunjukkanku	-5435
▁merindukannya	-5436
▁pernikahannya	-5437
▁berkonsentrasi	-5438
▁ditandatangani	-5439
▁kemungkinannya	-5440
▁membangunkanku	-5441
▁memperingatkan	-5442
▁mengecewakanmu	-5443
▁menghiraukanku	-5444
▁menghubunginya	-5445
▁menunjukkannya	-5446
▁menyarankannya	-5447
▁menyerahkannya	-5448
▁perlengkapanmu	-5449
▁mempermalukanku	-5450
▁mengandalkannya	-5451
▁menginginkannya	-5452
27	-5453
39	-5454
45	-5455
63	-5456
74	-5457
ax	-5458
bi	-5459
cc	-5460
ch	-5461
ck	-5462
co	-5463
cr	-5464
ft	-5465
ge	-5466
ha	-5467
ie	-5468
iv	-5469
ly	-5470
nn	-5471
oj	-5472
qr	-5473
re	-5474
ro	-5475
ry	-5476
se	-5477
sg	-5478
sr	-5479
sy	-5480
wo	-5481
yn	-5482
ys	-5483
▁7	-5484
▁9	-5485
▁;	-5486
271	-5487
ade	-5488
ail	-5489
aju	-5490
alk	-5491
aly	-5492
amm	-5493
apl	-5494
apu	-5495
arb	-5496
ary	-5497
ash	-5498
ate	-5499
10	-5500
asl	-5501
aur	-5502
avy	-5503
bar	-5504
bil	-5505
bku	-5506
bur	-5507
cip	-5508
der	-5509
dik	-5510
een	-5511
eik	-5512
emi	-5513
eon	-5514
eta	-5515
eti	-5516
etn	-5517
fku	-5518
gam	-5519
gap	-5520
gin	-5521
gir	-5522
giv	-5523
hur	-5524
iak	-5525
iar	-5526
ibu	-5527
ikr	-5528
ine	-5529
ink	-5530
ins	-5531
ite	-5532
itt	-5533
iup	-5534
kar	-5535
kek	-5536
lem	-5537
lob	-5538
min	-5539
nah	-5540
oke	-5541
oku	-5542
osa	-5543
ose	-5544
pes	-5545
pil	-5546
raz	-5547
red	-5548
ren	-5549
rid	-5550
sik	-5551
sor	-5552
tai	-5553
tem	-5554
til	-5555
tuk	-5556
tus	-5557
ubi	-5558
ubj	-5559
ukr	-5560
upi	-5561
utr	-5562
vas	-5563
vis	-5564
win	-5565
wit	-5566
xas	-5567
yah	-5568
yal	-5569
yaw	-5570
yik	-5571
zal	-5572
▁15	-5573
▁24	-5574
▁26	-5575
▁35	-5576
▁be	-5577
▁bl	-5578
▁co	-5579
▁cr	-5580
▁dj	-5581
▁he	-5582
▁ho	-5583
▁ih	-5584
▁je	-5585
▁li	-5586
▁lu	-5587
▁mp	-5588
▁or	-5589
▁sc	-5590
▁tk	-5591
▁yo	-5592
▁zo	-5593
adat	-5594
aduk	-5595
agus	-5596
ahal	-5597
ahas	-5598
aina	-5599
aii	-5600
ion	-5601
mon	-5602
zim	-5603
▁70	-5604
▁ai	-5605
ahir	-5606
aing	-5607
akal	-5608
alon	-5609
alut	-5610
amai	-5611
amas	-5612
anak	-5613
anas	-5614
apah	-5615
arel	-5616
ares	-5617
ario	-5618
arte	-5619
arum	-5620
arut	-5621
asah	-5622
asti	-5623
atat	-5624
atik	-5625
atin	-5626
ator	-5627
awah	-5628
awin	-5629
ayap	-5630
bola	-5631
cana	-5632
cang	-5633
cipi	-5634
crip	-5635
dang	-5636
dawa	-5637
ebar	-5638
ecus	-5639
edis	-5640
egar	-5641
ekku	-5642
ekul	-5643
elap	-5644
eleh	-5645
elit	-5646
elmu	-5647
emil	-5648
emur	-5649
enam	-5650
endi	-5651
ener	-5652
engs	-5653
enos	-5654
enun	-5655
enus	-5656
eong	-5657
erai	-5658
eral	-5659
eras	-5660
eren	-5661
erum	-5662
erus	-5663
esku	-5664
etku	-5665
etul	-5666
gaan	-5667
giat	-5668
gigi	-5669
goda	-5670
hira	-5671
idol	-5672
ihak	-5673
ihal	-5674
ikin	-5675
ilas	-5676
ilin	-5677
ilki	-5678
inah	-5679
inis	-5680
inol	-5681
ipta	-5682
iran	-5683
irus	-5684
isap	-5685
isis	-5686
ismu	-5687
itis	-5688
itur	-5689
kahi	-5690
kuit	-5691
ling	-5692
ohid	-5693
oker	-5694
omas	-5695
onik	-5696
onor	-5697
oris	-5698
oset	-5699
ebl	-5700
kup	-5701
oln	-5702
ret	-5703
upa	-5704
▁cd	-5705
▁ol	-5706
agan	-5707
ebel	-5708
esak	-5709
esor	-5710
ftar	-5711
jana	-5712
osil	-5713
osmu	-5714
otek	-5715
otre	-5716
pasi	-5717
pnya	-5718
rono	-5719
sipu	-5720
sius	-5721
trak	-5722
ubur	-5723
uduh	-5724
udut	-5725
ulum	-5726
ulur	-5727
umah	-5728
uman	-5729
umat	-5730
umen	-5731
umis	-5732
umpa	-5733
unis	-5734
urah	-5735
urut	-5736
usah	-5737
usan	-5738
util	-5739
utir	-5740
utub	-5741
vari	-5742
veri	-5743
wang	-5744
▁arg	-5745
▁asa	-5746
▁asl	-5747
▁bak	-5748
▁beb	-5749
▁bor	-5750
▁bow	-5751
▁cam	-5752
▁cem	-5753
▁cet	-5754
▁dal	-5755
▁dek	-5756
▁del	-5757
▁den	-5758
▁dud	-5759
▁eja	-5760
▁esa	-5761
▁gil	-5762
▁git	-5763
▁hek	-5764
▁hil	-5765
▁hir	-5766
▁hol	-5767
▁ibr	-5768
▁ima	-5769
▁jad	-5770
▁jin	-5771
▁kaf	-5772
▁kyi	-5773
▁lab	-5774
▁lad	-5775
▁lid	-5776
▁loe	-5777
▁lot	-5778
▁lut	-5779
▁mol	-5780
▁msg	-5781
▁muh	-5782
▁nad	-5783
▁nel	-5784
▁nih	-5785
▁pia	-5786
▁por	-5787
▁puj	-5788
▁rad	-5789
▁raj	-5790
▁rap	-5791
▁ren	-5792
▁ris	-5793
▁san	-5794
▁sis	-5795
▁suk	-5796
▁sun	-5797
▁tiv	-5798
▁tol	-5799
obs	-5800
upu	-5801
aktu	-5802
cani	-5803
entu	-5804
epak	-5805
epan	-5806
gong	-5807
obek	-5808
pong	-5809
ujuk	-5810
upai	-5811
upan	-5812
uput	-5813
yong	-5814
▁aja	-5815
▁gan	-5816
▁get	-5817
▁gua	-5818
▁jua	-5819
▁nol	-5820
▁sia	-5821
▁val	-5822
▁yah	-5823
▁yak	-5824
▁yuk	-5825
adani	-5826
adnya	-5827
ageti	-5828
ahaga	-5829
ahnya	-5830
ainer	-5831
akaan	-5832
akjub	-5833
akter	-5834
alagi	-5835
alamu	-5836
alian	-5837
alifa	-5838
alimu	-5839
amaan	-5840
ambur	-5841
ammad	-5842
andan	-5843
anget	-5844
anila	-5845
ansis	-5846
anyam	-5847
araga	-5848
arimu	-5849
artel	-5850
asana	-5851
asang	-5852
atkan	-5853
auhan	-5854
ebana	-5855
eblos	-5856
edera	-5857
eknya	-5858
ektif	-5859
elkan	-5860
emuka	-5861
enbur	-5862
engmu	-5863
ening	-5864
ental	-5865
enyap	-5866
epati	-5867
eping	-5868
epnya	-5869
erbit	-5870
erius	-5871
ertak	-5872
gagap	-5873
ibusi	-5874
idasi	-5875
ihnya	-5876
ilkan	-5877
imala	-5878
inaan	-5879
indah	-5880
ingal	-5881
iolin	-5882
itasi	-5883
itiga	-5884
jahat	-5885
janya	-5886
kanak	-5887
ksgiv	-5888
maran	-5889
ohnya	-5890
ongku	-5891
onnya	-5892
ontok	-5893
oreng	-5894
osong	-5895
otaan	-5896
perak	-5897
ranya	-5898
sanya	-5899
732	-5900
edi	-5901
imb	-5902
lim	-5903
▁im	-5904
acuh	-5905
ehat	-5906
ibil	-5907
ilyn	-5908
imen	-5909
kati	-5910
samu	-5911
taan	-5912
tawa	-5913
ukio	-5914
wood	-5915
▁fuj	-5916
▁kot	-5917
▁rev	-5918
▁sox	-5919
▁sta	-5920
abung	-5921
antum	-5922
aulan	-5923
inium	-5924
inyak	-5925
istik	-5926
oktor	-5927
tujuh	-5928
tunya	-5929
udung	-5930
ukaan	-5931
ukuri	-5932
ulaan	-5933
ulnya	-5934
unaan	-5935
ungut	-5936
untuk	-5937
untum	-5938
urian	-5939
ustri	-5940
utkan	-5941
yakya	-5942
yanya	-5943
▁1732	-5944
▁1970	-5945
▁1994	-5946
▁agus	-5947
▁aime	-5948
▁akar	-5949
▁aktr	-5950
▁alat	-5951
▁alum	-5952
▁asin	-5953
▁atur	-5954
▁baja	-5955
▁bant	-5956
▁bata	-5957
▁baya	-5958
▁bell	-5959
▁bery	-5960
▁bete	-5961
▁bibi	-5962
▁biji	-5963
▁braz	-5964
▁camb	-5965
▁cemb	-5966
▁cont	-5967
▁dana	-5968
▁daya	-5969
▁diag	-5970
▁duit	-5971
▁duri	-5972
▁duta	-5973
▁edis	-5974
▁elek	-5975
▁engs	-5976
▁etis	-5977
▁fant	-5978
▁file	-5979
▁furn	-5980
▁gate	-5981
▁gitu	-5982
▁gond	-5983
▁hent	-5984
▁hidr	-5985
▁horm	-5986
▁iker	-5987
▁ilah	-5988
▁jari	-5989
▁jeli	-5990
▁juru	-5991
▁kaku	-5992
▁kari	-5993
▁keji	-5994
▁koiz	-5995
▁koko	-5996
▁kuil	-5997
▁lara	-5998
▁lisa	-5999
oid	-6000
abul	-6001
cati	-6002
ecut	-6003
edai	-6004
ejar	-6005
gasi	-6006
obos	-6007
ogok	-6008
osok	-6009
pati	-6010
sika	-6011
▁iri	-6012
▁jab	-6013
▁mab	-6014
▁red	-6015
amati	-6016
antar	-6017
antin	-6018
entan	-6019
entuh	-6020
etika	-6021
itlah	-6022
urius	-6023
▁antr	-6024
▁ceri	-6025
▁lomp	-6026
▁long	-6027
▁luka	-6028
▁maju	-6029
▁mala	-6030
▁mama	-6031
▁mant	-6032
▁mark	-6033
▁mela	-6034
▁memf	-6035
▁mene	-6036
▁merk	-6037
▁mewa	-6038
▁ming	-6039
▁mini	-6040
▁mula	-6041
▁nada	-6042
▁nara	-6043
▁nasa	-6044
▁nati	-6045
▁ngga	-6046
▁niat	-6047
▁ongk	-6048
▁paku	-6049
▁palu	-6050
▁pank	-6051
▁park	-6052
▁perp	-6053
▁pion	-6054
▁pita	-6055
▁puar	-6056
▁purn	-6057
▁remb	-6058
▁samb	-6059
▁sand	-6060
▁sang	-6061
▁sari	-6062
▁saus	-6063
▁sept	-6064
▁setr	-6065
▁seum	-6066
▁sial	-6067
▁socc	-6068
▁soft	-6069
▁subj	-6070
▁tant	-6071
▁teri	-6072
▁tint	-6073
▁ussr	-6074
▁verm	-6075
▁wali	-6076
aafkan	-6077
aannya	-6078
adaman	-6079
afalan	-6080
aikkan	-6081
ailand	-6082
ajikan	-6083
ajukan	-6084
akunya	-6085
alapan	-6086
alator	-6087
amakan	-6088
amatir	-6089
amping	-6090
angkah	-6091
angkak	-6092
angkok	-6093
apalan	-6094
apanku	-6095
aparte	-6096
apikan	-6097
arakan	-6098
argaan	-6099
own	-6100
ensi	-6101
ibuk	-6102
otak	-6103
otes	-6104
otol	-6105
otot	-6106
▁buj	-6107
▁cnn	-6108
▁dog	-6109
▁hib	-6110
▁ont	-6111
▁zom	-6112
ajaan	-6113
anamu	-6114
ancam	-6115
cript	-6116
ialan	-6117
ownlo	-6118
tuamu	-6119
▁biob	-6120
▁giat	-6121
▁hall	-6122
▁kala	-6123
▁kepr	-6124
▁panj	-6125
▁prem	-6126
▁prin	-6127
▁prku	-6128
▁prob	-6129
▁rabu	-6130
▁sint	-6131
angkal	-6132
angkas	-6133
angkau	-6134
angkuk	-6135
angkum	-6136
arnasi	-6137
asilah	-6138
atanya	-6139
atawan	-6140
auhlah	-6141
baikan	-6142
barkan	-6143
batnya	-6144
cayaan	-6145
dahkan	-6146
ebelah	-6147
ecatmu	-6148
edakan	-6149
eksper	-6150
elamat	-6151
emaran	-6152
endara	-6153
endiri	-6154
entian	-6155
erakan	-6156
eralah	-6157
erawat	-6158
erjaan	-6159
ewahan	-6160
ewakan	-6161
gainya	-6162
giling	-6163
ikator	-6164
indung	-6165
ingkan	-6166
ington	-6167
inolog	-6168
iranya	-6169
isilin	-6170
lesnya	-6171
liknya	-6172
mologi	-6173
odanya	-6174
olakan	-6175
ordion	-6176
orinya	-6177
osikan	-6178
panyol	-6179
peroni	-6180
preter	-6181
sikiat	-6182
tainya	-6183
tannya	-6184
ternya	-6185
tonton	-6186
tronik	-6187
turkan	-6188
uaikan	-6189
ukasia	-6190
ukulel	-6191
uminya	-6192
umuman	-6193
ungkan	-6194
ungkap	-6195
uniaga	-6196
usukan	-6197
witter	-6198
▁aksen	-6199
otl	-6200
sip	-6201
▁qr	-6202
▁vi	-6203
akui	-6204
andy	-6205
ciku	-6206
cipr	-6207
duri	-6208
eduh	-6209
emui	-6210
inju	-6211
shir	-6212
▁cow	-6213
▁fol	-6214
▁haw	-6215
▁pub	-6216
acuni	-6217
anjat	-6218
asiku	-6219
inaku	-6220
isaku	-6221
shire	-6222
tuaku	-6223
▁dira	-6224
▁hand	-6225
▁itik	-6226
▁kuta	-6227
▁sisa	-6228
▁tump	-6229
anggal	-6230
dakian	-6231
durnya	-6232
epatan	-6233
eraian	-6234
uhanmu	-6235
▁akses	-6236
▁apaan	-6237
▁artik	-6238
▁asyik	-6239
▁badak	-6240
▁bahan	-6241
▁balas	-6242
▁baris	-6243
▁batal	-6244
▁bayak	-6245
▁becus	-6246
▁benda	-6247
▁bener	-6248
▁beres	-6249
▁berka	-6250
▁berke	-6251
▁berku	-6252
▁beruk	-6253
▁bikin	-6254
▁blong	-6255
▁bonus	-6256
▁bosku	-6257
▁bosmu	-6258
▁botmu	-6259
▁butir	-6260
▁capai	-6261
▁casil	-6262
▁cowok	-6263
▁dadar	-6264
▁dansa	-6265
▁derak	-6266
▁desas	-6267
▁diinv	-6268
▁diset	-6269
▁ditan	-6270
▁diteg	-6271
▁efisi	-6272
▁ejaan	-6273
▁embar	-6274
▁entah	-6275
▁fajar	-6276
▁filsu	-6277
▁final	-6278
▁gegar	-6279
▁gerah	-6280
▁hebat	-6281
▁henti	-6282
▁hoaks	-6283
▁jalur	-6284
▁jaman	-6285
▁jangk	-6286
▁jarum	-6287
▁jauhi	-6288
▁kabut	-6289
▁karet	-6290
▁karun	-6291
▁kasti	-6292
▁kecem	-6293
▁kemaj	-6294
▁keman	-6295
▁kemau	-6296
▁keped	-6297
▁keper	-6298
▁kepol	-6299
pio	-6300
afal	-6301
akna	-6302
edar	-6303
erna	-6304
ited	-6305
▁lip	-6306
▁med	-6307
akiti	-6308
aviol	-6309
edisi	-6310
isian	-6311
odaku	-6312
orpio	-6313
ulisi	-6314
▁ajak	-6315
▁ajar	-6316
▁alja	-6317
▁atom	-6318
▁deda	-6319
▁gram	-6320
▁ikat	-6321
▁lips	-6322
▁naga	-6323
▁pink	-6324
▁punk	-6325
abisat	-6326
akatan	-6327
anjian	-6328
ernaan	-6329
impati	-6330
lankan	-6331
ulusan	-6332
▁aires	-6333
▁cukur	-6334
▁ganja	-6335
▁iklan	-6336
▁kasur	-6337
▁kesan	-6338
▁kesed	-6339
▁keset	-6340
▁ketat	-6341
▁ketek	-6342
▁keter	-6343
▁ketua	-6344
▁kirim	-6345
▁krist	-6346
▁kuemu	-6347
▁lapis	-6348
▁licin	-6349
▁lingk	-6350
▁lurus	-6351
▁macan	-6352
▁mahir	-6353
▁makar	-6354
▁malan	-6355
▁maret	-6356
▁marga	-6357
▁masin	-6358
▁maumu	-6359
▁mayat	-6360
▁mebel	-6361
▁melah	-6362
▁menaf	-6363
▁menci	-6364
▁menik	-6365
▁meres	-6366
▁mulus	-6367
▁nafas	-6368
▁nafsu	-6369
▁nakal	-6370
▁napol	-6371
▁ngeli	-6372
▁optim	-6373
▁otodi	-6374
▁paran	-6375
▁pasar	-6376
▁patuh	-6377
▁payah	-6378
▁pekat	-6379
▁pemro	-6380
▁perca	-6381
▁perju	-6382
▁perus	-6383
▁piala	-6384
▁pihak	-6385
▁piyam	-6386
▁print	-6387
▁pucuk	-6388
▁pudel	-6389
▁punah	-6390
▁racun	-6391
▁rakit	-6392
▁reink	-6393
▁rekor	-6394
▁rinci	-6395
▁rokku	-6396
▁rumit	-6397
▁rumus	-6398
▁sangk	-6399
ble	-6400
beri	-6401
ecak	-6402
hami	-6403
ware	-6404
aruan	-6405
otret	-6406
▁arik	-6407
▁bego	-6408
▁burj	-6409
▁guin	-6410
▁hulu	-6411
▁isti	-6412
▁lemp	-6413
▁nyan	-6414
▁pola	-6415
▁sket	-6416
▁urat	-6417
▁yuan	-6418
ekatan	-6419
ilhami	-6420
rabble	-6421
trumen	-6422
usiaan	-6423
▁harpa	-6424
▁kedai	-6425
▁lahan	-6426
▁manja	-6427
▁panah	-6428
▁pemel	-6429
▁pokok	-6430
▁rubah	-6431
▁rusia	-6432
▁sebab	-6433
▁sebut	-6434
▁sekam	-6435
▁sekop	-6436
▁semir	-6437
▁semut	-6438
▁senam	-6439
▁senap	-6440
▁senja	-6441
▁senon	-6442
▁seram	-6443
▁serat	-6444
▁serul	-6445
▁setan	-6446
▁siani	-6447
▁sifku	-6448
▁sipil	-6449
▁stopk	-6450
▁stres	-6451
▁sumat	-6452
▁surel	-6453
▁talas	-6454
▁tangk	-6455
▁tegal	-6456
▁telor	-6457
▁terun	-6458
▁texas	-6459
▁tiong	-6460
▁tirai	-6461
▁tiram	-6462
▁tokoh	-6463
▁tusuk	-6464
▁ujung	-6465
▁venus	-6466
▁vietn	-6467
▁wajik	-6468
▁warta	-6469
▁yukio	-6470
adaikan	-6471
akarnya	-6472
alangan	-6473
alankan	-6474
alkohol	-6475
amiliar	-6476
antinya	-6477
apusnya	-6478
arganya	-6479
arianmu	-6480
asarkan	-6481
ciprati	-6482
ebarkan	-6483
ebrangi	-6484
ecilkan	-6485
elaskan	-6486
empuran	-6487
enengan	-6488
enerasi	-6489
engkapi	-6490
eraikan	-6491
erangan	-6492
erdosis	-6493
erjaiku	-6494
etangga	-6495
ewatkan	-6496
icaraan	-6497
ilikiku	-6498
imbahan	-6499
▁13	-6500
▁als	-6501
▁gaz	-6502
▁hop	-6503
▁kug	-6504
ahami	-6505
okopi	-6506
udida	-6507
▁alih	-6508
▁cuti	-6509
▁feta	-6510
▁jala	-6511
▁kail	-6512
ediaan	-6513
encang	-6514
ilihan	-6515
ohonan	-6516
▁bakat	-6517
▁canda	-6518
▁dipen	-6519
▁ganda	-6520
▁hampa	-6521
▁makna	-6522
▁nekat	-6523
▁patut	-6524
▁persa	-6525
▁ramai	-6526
▁struk	-6527
▁tabir	-6528
amankan	-6529
ebutkan	-6530
emputmu	-6531
inganya	-6532
ingatan	-6533
inggung	-6534
ingitis	-6535
irausah	-6536
isannya	-6537
jarakan	-6538
kalator	-6539
katilah	-6540
kirakan	-6541
lakukan	-6542
manfaat	-6543
odiakmu	-6544
ohidrat	-6545
okteran	-6546
onorkan	-6547
ontakmu	-6548
otokopi	-6549
portasi	-6550
timeter	-6551
traviol	-6552
uangnya	-6553
ukungmu	-6554
ulurkan	-6555
ungkiri	-6556
ustrasi	-6557
yamaran	-6558
▁adikmu	-6559
▁aktris	-6560
▁alunan	-6561
▁amarah	-6562
▁anggun	-6563
▁apanya	-6564
▁asalku	-6565
▁asalmu	-6566
▁awakmu	-6567
▁baunya	-6568
▁bawaan	-6569
▁begini	-6570
▁bekerj	-6571
▁bentuk	-6572
▁berasa	-6573
▁berbau	-6574
▁bercak	-6575
▁bergen	-6576
▁berhal	-6577
▁berima	-6578
▁berinv	-6579
▁berkom	-6580
▁berleb	-6581
▁berlin	-6582
▁berpap	-6583
▁berpen	-6584
▁berseb	-6585
▁bersen	-6586
▁bersik	-6587
▁bertel	-6588
▁bibiku	-6589
▁bidang	-6590
▁bisnya	-6591
▁brandy	-6592
▁buatan	-6593
▁buenos	-6594
▁buyung	-6595
▁campur	-6596
▁cerdik	-6597
▁darwin	-6598
▁diberi	-6599
▁ov	-6600
ftal	-6601
▁200	-6602
▁vih	-6603
▁vul	-6604
elund	-6605
osimu	-6606
▁1903	-6607
▁debu	-6608
▁esai	-6609
▁koma	-6610
▁saks	-6611
antian	-6612
emahan	-6613
▁bayar	-6614
▁emang	-6615
▁janda	-6616
▁kabel	-6617
▁komik	-6618
▁krama	-6619
▁layar	-6620
▁oftal	-6621
▁pedih	-6622
▁piama	-6623
▁tenda	-6624
elundup	-6625
enalkan	-6626
onggong	-6627
▁bagimu	-6628
▁daring	-6629
▁dibuka	-6630
▁dicium	-6631
▁dicoba	-6632
▁difoto	-6633
▁dikali	-6634
▁dikend	-6635
▁dimunt	-6636
▁diples	-6637
▁dipred	-6638
▁dirunt	-6639
▁disitu	-6640
▁ditunt	-6641
▁diveri	-6642
▁duanya	-6643
▁folder	-6644
▁gading	-6645
▁gagang	-6646
▁gaunmu	-6647
▁gayamu	-6648
▁guinea	-6649
▁hadapi	-6650
▁hallow	-6651
▁hambat	-6652
▁harian	-6653
▁harimu	-6654
▁hatiku	-6655
▁hawaii	-6656
▁hiking	-6657
▁himala	-6658
▁hobimu	-6659
▁hormat	-6660
▁imagin	-6661
▁isinya	-6662
▁izinku	-6663
▁izinmu	-6664
▁jariku	-6665
▁jingga	-6666
▁kabari	-6667
▁kadoku	-6668
▁kaleng	-6669
▁kambuh	-6670
▁kantin	-6671
▁kataku	-6672
▁kecuri	-6673
▁kedalu	-6674
▁kelapa	-6675
▁kempes	-6676
▁kepanj	-6677
▁keping	-6678
▁kerena	-6679
▁kesemb	-6680
▁kesimp	-6681
▁kesini	-6682
▁khitan	-6683
▁kolera	-6684
▁koment	-6685
▁komite	-6686
▁kontra	-6687
▁krisis	-6688
▁kubawa	-6689
▁kuberm	-6690
▁kubisa	-6691
▁kucari	-6692
▁kudaku	-6693
▁kudamu	-6694
▁ladang	-6695
▁lakban	-6696
▁lembah	-6697
▁lembar	-6698
▁lembut	-6699
000	-6700
▁100	-6701
▁300	-6702
▁hip	-6703
intim	-6704
ipkan	-6705
odohi	-6706
usius	-6707
yilah	-6708
▁arak	-6709
▁arit	-6710
▁budi	-6711
▁haji	-6712
▁roda	-6713
▁tuju	-6714
atasan	-6715
awasan	-6716
ekanya	-6717
engkel	-6718
oritas	-6719
▁engah	-6720
▁esnya	-6721
▁mulsa	-6722
▁parut	-6723
▁pembi	-6724
▁studi	-6725
anianmu	-6726
epaskan	-6727
etaknya	-6728
impikan	-6729
ungutan	-6730
▁300000	-6731
▁dagang	-6732
▁gemari	-6733
▁gorden	-6734
▁lintah	-6735
▁maafmu	-6736
▁maling	-6737
▁mancur	-6738
▁mangga	-6739
▁matiin	-6740
▁mejaku	-6741
▁melamb	-6742
▁melanc	-6743
▁melemp	-6744
▁memand	-6745
▁memuat	-6746
▁memula	-6747
▁mencek	-6748
▁mencuk	-6749
▁mendeg	-6750
▁meneng	-6751
▁menerj	-6752
▁mengik	-6753
▁mengun	-6754
▁meniup	-6755
▁menjin	-6756
▁mental	-6757
▁mentor	-6758
▁mereda	-6759
▁merent	-6760
▁miliku	-6761
▁musisi	-6762
▁musnah	-6763
▁nadiku	-6764
▁naples	-6765
▁negera	-6766
▁pagoda	-6767
▁panama	-6768
▁pandan	-6769
▁paskah	-6770
▁pedang	-6771
▁pekerj	-6772
▁pelana	-6773
▁peluru	-6774
▁penaku	-6775
▁penamu	-6776
▁penata	-6777
▁penemu	-6778
▁pengac	-6779
▁penguc	-6780
▁perint	-6781
▁perkak	-6782
▁persen	-6783
▁pinggi	-6784
▁piyama	-6785
▁polusi	-6786
▁punyai	-6787
▁risiko	-6788
▁roknya	-6789
▁rontok	-6790
▁sakura	-6791
▁sandwi	-6792
▁seakan	-6793
▁sediak	-6794
▁segala	-6795
▁sekian	-6796
▁selada	-6797
▁sempat	-6798
▁semuda	-6799
ompol	-6800
umpit	-6801
▁acuh	-6802
▁febr	-6803
enggam	-6804
riorit	-6805
umbuku	-6806
▁antik	-6807
▁deter	-6808
▁guruh	-6809
▁kanji	-6810
▁kolib	-6811
▁nyala	-6812
▁pakar	-6813
▁radha	-6814
▁sabit	-6815
▁topik	-6816
▁tvnya	-6817
itasnya	-6818
kasinya	-6819
matinya	-6820
obekkan	-6821
tarikan	-6822
▁bandar	-6823
▁bankir	-6824
▁beliau	-6825
▁beriak	-6826
▁dibers	-6827
▁geland	-6828
▁impian	-6829
▁karyaw	-6830
▁kolong	-6831
▁lokasi	-6832
▁nyanyi	-6833
▁percak	-6834
▁petani	-6835
▁sekaya	-6836
▁semula	-6837
▁seneng	-6838
▁senter	-6839
▁sepagi	-6840
▁serbuk	-6841
▁seribu	-6842
▁sesama	-6843
▁sesuka	-6844
▁setahu	-6845
▁seusia	-6846
▁siakan	-6847
▁simbol	-6848
▁sumpit	-6849
▁suntuk	-6850
▁takjub	-6851
▁tanduk	-6852
▁tebang	-6853
▁tegang	-6854
▁temper	-6855
▁tepati	-6856
▁tepian	-6857
▁terber	-6858
▁terisi	-6859
▁terobs	-6860
▁terper	-6861
▁tersel	-6862
▁tertib	-6863
▁tertua	-6864
▁terung	-6865
▁timnya	-6866
▁tindak	-6867
▁tiupan	-6868
▁tumbuh	-6869
▁tumpul	-6870
▁turuti	-6871
▁uangmu	-6872
▁ukulel	-6873
▁united	-6874
▁valent	-6875
▁vulgar	-6876
▁wartel	-6877
adiahkan	-6878
adikanku	-6879
ahabatan	-6880
ahkannya	-6881
alingkan	-6882
amatinya	-6883
angatkan	-6884
angetkan	-6885
angganan	-6886
angkanya	-6887
dasarkan	-6888
ecualian	-6889
endingin	-6890
endongku	-6891
engkaran	-6892
enjangan	-6893
entingan	-6894
erlambat	-6895
hiraukan	-6896
ikroskop	-6897
ilangkan	-6898
impangan	-6899
▁80	-6900
ucks	-6901
▁800	-6902
▁sms	-6903
▁cook	-6904
▁oksi	-6905
▁peja	-6906
▁saji	-6907
artisi	-6908
estasi	-6909
formal	-6910
▁bayam	-6911
▁betah	-6912
▁demok	-6913
▁diart	-6914
▁jahat	-6915
▁jahit	-6916
▁lelap	-6917
▁negri	-6918
▁obeng	-6919
▁sudut	-6920
▁titik	-6921
angsung	-6922
arbucks	-6923
▁arahku	-6924
▁berski	-6925
▁capung	-6926
▁cookie	-6927
▁dadaku	-6928
▁kampus	-6929
▁kubeli	-6930
▁kubuat	-6931
▁ngarai	-6932
▁oblong	-6933
▁pelaut	-6934
▁pemaaf	-6935
▁penjum	-6936
▁pidana	-6937
▁status	-6938
▁supaya	-6939
▁topimu	-6940
ampingan	-6941
indahkan	-6942
ingannya	-6943
inkannya	-6944
ksgiving	-6945
oberinya	-6946
ohongiku	-6947
ompetisi	-6948
ontarkan	-6949
tawarkan	-6950
uarkanmu	-6951
ungannya	-6952
ungutlah	-6953
vascript	-6954
▁abaikan	-6955
▁adiknya	-6956
▁akankah	-6957
▁akuntan	-6958
▁antares	-6959
▁arahnya	-6960
▁asalkan	-6961
▁asalnya	-6962
▁atasnya	-6963
▁ataupun	-6964
▁bacanya	-6965
▁badanku	-6966
▁badanmu	-6967
▁baginya	-6968
▁bangkok	-6969
▁barusan	-6970
▁basemen	-6971
▁bawalah	-6972
▁belanda	-6973
▁belasan	-6974
▁bencana	-6975
▁beradab	-6976
▁berakit	-6977
▁beratus	-6978
▁berawan	-6979
▁berbaha	-6980
▁berdaun	-6981
▁berdaya	-6982
▁berdosa	-6983
▁berduka	-6984
▁berhari	-6985
▁berlain	-6986
▁bermata	-6987
▁bersila	-6988
▁bertepi	-6989
▁biarpun	-6990
▁bibirmu	-6991
▁biologi	-6992
▁bisakan	-6993
▁bisanya	-6994
▁bowling	-6995
▁buatkan	-6996
▁buatlah	-6997
▁bukalah	-6998
▁cambrid	-6999
▁42	-7000
unch	-7001
▁oak	-7002
▁smp	-7003
▁wow	-7004
▁yog	-7005
ognya	-7006
osaur	-7007
tegas	-7008
uncit	-7009
uncur	-7010
▁lega	-7011
▁mona	-7012
▁monr	-7013
▁pacu	-7014
▁syal	-7015
▁tega	-7016
▁than	-7017
▁tuna	-7018
▁ulat	-7019
▁wals	-7020
aksian	-7021
dirkan	-7022
fikasi	-7023
undaan	-7024
▁diary	-7025
▁didir	-7026
▁gulat	-7027
▁italy	-7028
▁kapur	-7029
▁pecat	-7030
▁saksi	-7031
▁sinis	-7032
▁spesi	-7033
▁strok	-7034
▁tesis	-7035
▁usang	-7036
▁zamen	-7037
againya	-7038
osaurus	-7039
▁belaka	-7040
▁bibimu	-7041
▁brasil	-7042
▁buncit	-7043
▁cermin	-7044
▁crunch	-7045
▁duluan	-7046
▁kastil	-7047
▁monroe	-7048
▁otakmu	-7049
▁penerj	-7050
▁sekret	-7051
▁yoghur	-7052
▁berfoto	-7053
▁blognya	-7054
▁camilan	-7055
▁candaan	-7056
▁carikan	-7057
▁cemburu	-7058
▁cetakan	-7059
▁depanmu	-7060
▁diajari	-7061
▁diamnya	-7062
▁dibalas	-7063
▁dibelah	-7064
▁diberit	-7065
▁diculik	-7066
▁digapai	-7067
▁dihalui	-7068
▁dikenal	-7069
▁dikulum	-7070
▁dinasti	-7071
▁dipakai	-7072
▁dipesan	-7073
▁disukai	-7074
▁ditahan	-7075
▁ditikam	-7076
▁ditunda	-7077
▁efisien	-7078
▁emasnya	-7079
▁enaknya	-7080
▁evolusi	-7081
▁filenya	-7082
▁fotonya	-7083
▁gantung	-7084
▁gembala	-7085
▁giliran	-7086
▁gitarku	-7087
▁gitarmu	-7088
▁hadapan	-7089
▁hadirin	-7090
▁hidupmu	-7091
▁hiperak	-7092
▁hobinya	-7093
▁hotelku	-7094
▁ijinkan	-7095
▁ikebana	-7096
▁imitasi	-7097
▁ingatan	-7098
▁jadinya	-7099
ernur	-7100
imuti	-7101
otori	-7102
▁1910	-7103
▁6322	-7104
▁abad	-7105
▁imut	-7106
▁kutu	-7107
▁tuba	-7108
▁voli	-7109
alangi	-7110
aterai	-7111
ektasi	-7112
erbuat	-7113
▁didik	-7114
▁intol	-7115
▁lemon	-7116
▁nyali	-7117
▁penyu	-7118
▁tipis	-7119
▁topan	-7120
▁wangi	-7121
iharaan	-7122
▁dasimu	-7123
▁guruku	-7124
▁lompat	-7125
▁posisi	-7126
eritakan	-7127
ernihkan	-7128
▁ayamnya	-7129
▁baterai	-7130
▁beracun	-7131
▁bibinya	-7132
▁dahinya	-7133
▁jalanku	-7134
▁jalanmu	-7135
▁jaminan	-7136
▁jawabmu	-7137
▁jengkal	-7138
▁jeritan	-7139
▁jongkok	-7140
▁kainnya	-7141
▁kamusmu	-7142
▁kanakan	-7143
▁kancing	-7144
▁karibku	-7145
▁kecilku	-7146
▁keingin	-7147
▁kejutan	-7148
▁kembang	-7149
▁kencang	-7150
▁kenyang	-7151
▁keselam	-7152
▁ketujuh	-7153
▁kolibri	-7154
▁komunis	-7155
▁koneksi	-7156
▁koperku	-7157
▁koranku	-7158
▁koreksi	-7159
▁korsika	-7160
▁kubantu	-7161
▁kubilai	-7162
▁kukunya	-7163
▁kulitmu	-7164
▁kuminta	-7165
▁kurangi	-7166
▁kursimu	-7167
▁kutemui	-7168
▁lagilah	-7169
▁madunya	-7170
▁mahyong	-7171
▁makanya	-7172
▁malammu	-7173
▁mandiri	-7174
▁manfaat	-7175
▁manikam	-7176
▁marylah	-7177
▁melamar	-7178
▁melawan	-7179
▁memadam	-7180
▁membaik	-7181
▁membeku	-7182
▁membela	-7183
▁memburu	-7184
▁memfoto	-7185
▁memutar	-7186
▁memutus	-7187
▁menanak	-7188
▁menapak	-7189
▁menawan	-7190
▁menawar	-7191
▁mendung	-7192
▁mengada	-7193
▁mengeja	-7194
▁menghan	-7195
▁menitan	-7196
▁menuang	-7197
▁menuduh	-7198
▁menurut	-7199
orge	-7200
▁ahl	-7201
▁bui	-7202
▁tax	-7203
▁thr	-7204
▁tht	-7205
▁klik	-7206
▁linc	-7207
▁oslo	-7208
▁taxi	-7209
▁ursa	-7210
entina	-7211
hianat	-7212
truksi	-7213
▁budak	-7214
▁desus	-7215
▁dungu	-7216
▁emosi	-7217
▁galon	-7218
▁kokoh	-7219
▁liter	-7220
▁loker	-7221
▁metal	-7222
▁mewah	-7223
▁nyeri	-7224
▁palem	-7225
▁tekuk	-7226
▁tekun	-7227
▁urusi	-7228
ariskan	-7229
ewaskan	-7230
gerakan	-7231
ingkuhi	-7232
traungu	-7233
usinasi	-7234
▁bomnya	-7235
▁burger	-7236
▁dallas	-7237
▁desamu	-7238
▁ekspor	-7239
▁gajiku	-7240
▁george	-7241
▁gorila	-7242
▁karbon	-7243
▁kausku	-7244
▁negosi	-7245
▁peluit	-7246
▁piring	-7247
▁pusing	-7248
▁sakumu	-7249
▁sambut	-7250
▁tonton	-7251
▁undian	-7252
embuskan	-7253
▁ahlinya	-7254
▁benakmu	-7255
▁dirusak	-7256
▁gajinya	-7257
▁hatilah	-7258
▁kudanya	-7259
▁lincoln	-7260
▁memetik	-7261
▁menebus	-7262
▁menyewa	-7263
▁merayap	-7264
▁merdeka	-7265
▁merebut	-7266
▁merpati	-7267
▁militer	-7268
▁mimpiku	-7269
▁mishima	-7270
▁mulutku	-7271
▁muridku	-7272
▁musuhmu	-7273
▁nelayan	-7274
▁ngengat	-7275
▁nilaimu	-7276
▁nomormu	-7277
▁numpang	-7278
▁nyaring	-7279
▁nyiakan	-7280
▁oksigen	-7281
▁ontario	-7282
▁organik	-7283
▁pamanmu	-7284
▁panduan	-7285
▁pangkat	-7286
▁parunya	-7287
▁pasaran	-7288
▁pejabat	-7289
▁pelangi	-7290
▁pelatih	-7291
▁pemabuk	-7292
▁pemadam	-7293
▁pemanas	-7294
▁pemanis	-7295
▁pemberh	-7296
▁pemberi	-7297
▁pemutar	-7298
▁pencuci	-7299
▁ori	-7300
erlap	-7301
injau	-7302
▁1870	-7303
▁drum	-7304
▁hoki	-7305
▁khan	-7306
▁nabi	-7307
▁rans	-7308
erlang	-7309
▁balai	-7310
▁datar	-7311
▁dosis	-7312
▁freku	-7313
▁lekas	-7314
▁pahit	-7315
▁sosis	-7316
▁trans	-7317
▁wajib	-7318
adukkan	-7319
▁cacing	-7320
▁curang	-7321
▁dahaga	-7322
▁keller	-7323
▁lembap	-7324
▁lembur	-7325
▁ngerti	-7326
▁tipeku	-7327
untukkan	-7328
▁balapan	-7329
▁bangkai	-7330
▁bedanya	-7331
▁daunnya	-7332
▁ditusuk	-7333
▁gelisah	-7334
▁hiburan	-7335
▁infeksi	-7336
▁jurusan	-7337
▁kentang	-7338
▁koizumi	-7339
▁ledakan	-7340
▁markisa	-7341
▁memutih	-7342
▁menusuk	-7343
▁pasokan	-7344
▁pecahan	-7345
▁pemanah	-7346
▁pemutih	-7347
▁pendiam	-7348
▁penutup	-7349
▁percuma	-7350
▁perdana	-7351
▁perihal	-7352
▁periksa	-7353
▁pesanku	-7354
▁petanya	-7355
▁pilekmu	-7356
▁popular	-7357
▁populer	-7358
▁puluhan	-7359
▁punyamu	-7360
▁radiomu	-7361
▁ramalan	-7362
▁reminya	-7363
▁rusanya	-7364
▁sabaran	-7365
▁saksama	-7366
▁salahmu	-7367
▁saranmu	-7368
▁sarjana	-7369
▁sayalah	-7370
▁sayangi	-7371
▁sebodoh	-7372
▁seember	-7373
▁seharga	-7374
▁sejenak	-7375
▁sekadar	-7376
▁sekejam	-7377
▁sekilas	-7378
▁semudah	-7379
▁senilai	-7380
▁sepakat	-7381
▁seputih	-7382
▁sesehat	-7383
▁sesulit	-7384
▁sesungg	-7385
▁setrika	-7386
▁sewanya	-7387
▁sianida	-7388
▁situlah	-7389
▁skorpio	-7390
▁sodanya	-7391
▁sorakan	-7392
▁suaramu	-7393
▁suasana	-7394
▁suhunya	-7395
▁sukarel	-7396
▁sumatra	-7397
▁sungkan	-7398
▁suratku	-7399
hoa	-7400
hof	-7401
lee	-7402
▁bei	-7403
▁hei	-7404
▁poj	-7405
▁2003	-7406
▁glee	-7407
▁damai	-7408
▁pojok	-7409
▁sifat	-7410
ibadian	-7411
istensi	-7412
ungkawa	-7413
▁amatir	-7414
▁golden	-7415
▁kelabu	-7416
▁kloset	-7417
▁kritis	-7418
▁pujian	-7419
▁timbel	-7420
▁tumpah	-7421
▁tuntut	-7422
▁ungkit	-7423
▁beijing	-7424
▁bengkak	-7425
▁bertiup	-7426
▁bervari	-7427
▁konteks	-7428
▁kumismu	-7429
▁lumbung	-7430
▁madinah	-7431
▁melamun	-7432
▁memprom	-7433
▁perekam	-7434
▁surelku	-7435
▁tanaman	-7436
▁tendang	-7437
▁tercium	-7438
▁terdiri	-7439
▁tergila	-7440
▁terlucu	-7441
▁tersipu	-7442
▁tokonya	-7443
▁toleran	-7444
▁truknya	-7445
▁tunggal	-7446
▁twitter	-7447
▁ujianku	-7448
▁ulangan	-7449
▁ularnya	-7450
▁uratnya	-7451
▁vietnam	-7452
▁waktuku	-7453
▁warisan	-7454
▁zoologi	-7455
ahagiakan	-7456
ahagialah	-7457
akatannya	-7458
akukannya	-7459
alamannya	-7460
anakannya	-7461
andingkan	-7462
antungkan	-7463
ashington	-7464
ebabkanku	-7465
emaskanmu	-7466
eritahuan	-7467
larasikan	-7468
ontribusi	-7469
traviolet	-7470
▁anggurmu	-7471
▁anjingmu	-7472
▁astronom	-7473
▁atlantis	-7474
▁autistik	-7475
▁badannya	-7476
▁bagusnya	-7477
▁balikkan	-7478
▁begadang	-7479
▁belerang	-7480
▁benarnya	-7481
▁beratnya	-7482
▁berbahan	-7483
▁berbakat	-7484
▁berbalik	-7485
▁berbaris	-7486
▁berbulan	-7487
▁bercerai	-7488
▁berdasar	-7489
▁berderak	-7490
▁berduaan	-7491
▁berhantu	-7492
▁berjemur	-7493
▁berkarat	-7494
▁berkerja	-7495
▁berkulit	-7496
▁berkumis	-7497
▁bermotor	-7498
▁bernilai	-7499
▁212	-7500
▁250	-7501
▁828	-7502
▁gue	-7503
▁hiu	-7504
warsa	-7505
▁1992	-7506
▁ahli	-7507
▁elev	-7508
▁elus	-7509
▁helm	-7510
▁ijuk	-7511
▁priv	-7512
hamiku	-7513
yatnya	-7514
yutkan	-7515
▁autis	-7516
▁bedah	-7517
▁cabai	-7518
▁dasar	-7519
▁debuk	-7520
▁dituj	-7521
▁entri	-7522
▁gubuk	-7523
▁hakim	-7524
▁helen	-7525
▁kadal	-7526
▁kimci	-7527
▁limun	-7528
▁mayor	-7529
▁merdu	-7530
▁ngoko	-7531
▁opini	-7532
▁poker	-7533
▁wadah	-7534
▁wafat	-7535
▁wajan	-7536
▁webku	-7537
▁webmu	-7538
giriman	-7539
▁aksara	-7540
▁albino	-7541
▁cabang	-7542
▁dukung	-7543
▁hidran	-7544
▁huyung	-7545
▁ilegal	-7546
▁jenius	-7547
▁kabuki	-7548
▁kimono	-7549
▁kincir	-7550
▁mailku	-7551
▁meraih	-7552
▁rabies	-7553
▁tandai	-7554
▁teater	-7555
▁teliti	-7556
▁yodium	-7557
alangiku	-7558
enturkan	-7559
▁cucilah	-7560
▁cucuran	-7561
▁digugat	-7562
▁dijahit	-7563
▁lamakah	-7564
▁lamaran	-7565
▁latihan	-7566
▁limusin	-7567
▁menekuk	-7568
▁privasi	-7569
▁seniman	-7570
▁taburan	-7571
embunyian	-7572
▁berandai	-7573
▁berpohon	-7574
▁bersakit	-7575
▁bersedia	-7576
▁bersikap	-7577
▁bersinar	-7578
▁bertatap	-7579
▁berteduh	-7580
▁bertepuk	-7581
▁berterus	-7582
▁besarkan	-7583
▁biayanya	-7584
▁bibirnya	-7585
▁bisnismu	-7586
▁bujangan	-7587
▁bunganya	-7588
▁casillas	-7589
▁celanamu	-7590
▁cepatlah	-7591
▁ceritamu	-7592
▁dapatkan	-7593
▁darahnya	-7594
▁desainer	-7595
▁desember	-7596
▁diadopsi	-7597
▁diagonal	-7598
▁dibilang	-7599
reas	-7600
ysia	-7601
▁839	-7602
▁1271	-7603
▁1945	-7604
▁1963	-7605
▁1974	-7606
▁rock	-7607
▁tapl	-7608
▁marry	-7609
▁mensy	-7610
▁mogok	-7611
▁melaju	-7612
▁nakuti	-7613
▁taplak	-7614
▁kristal	-7615
▁meleleh	-7616
▁menguak	-7617
▁menguap	-7618
▁ngapain	-7619
▁rebusan	-7620
▁recehan	-7621
▁salamku	-7622
▁semanga	-7623
▁sikapmu	-7624
▁angkatan	-7625
▁berkenan	-7626
▁debatnya	-7627
▁diganggu	-7628
▁dihambat	-7629
▁dihantam	-7630
▁dijeblos	-7631
▁dikurung	-7632
▁dimintai	-7633
▁dipahami	-7634
▁dipangku	-7635
▁dipotong	-7636
▁diracuni	-7637
▁dirampok	-7638
▁diserang	-7639
▁diservis	-7640
▁disimpan	-7641
▁ditabrak	-7642
▁ditakuti	-7643
▁ditemani	-7644
▁ditembak	-7645
▁familiar	-7646
▁gambaran	-7647
▁gambarmu	-7648
▁generasi	-7649
▁gitarnya	-7650
▁gubernur	-7651
▁habiskan	-7652
▁hafalkan	-7653
▁harapkan	-7654
▁hasilkan	-7655
▁hentinya	-7656
▁hiduplah	-7657
▁himalaya	-7658
▁hitungan	-7659
▁hotelnya	-7660
▁hubungan	-7661
▁impianku	-7662
▁istiadat	-7663
▁jalannya	-7664
▁janjinya	-7665
▁jeruknya	-7666
▁kabarnya	-7667
▁kabelnya	-7668
▁kamusnya	-7669
▁kapanpun	-7670
▁karakter	-7671
▁kartunya	-7672
▁kasmaran	-7673
▁kaukasia	-7674
▁kebaikan	-7675
▁kebohong	-7676
▁kecilnya	-7677
▁kejauhan	-7678
▁kekayaan	-7679
▁kelantan	-7680
▁kemajuan	-7681
▁kemejamu	-7682
▁kepalamu	-7683
▁kerannya	-7684
▁keretaku	-7685
▁kesamaan	-7686
▁ketahuan	-7687
▁ketiakmu	-7688
▁kolonial	-7689
▁konsulat	-7690
▁kontakku	-7691
▁kualitas	-7692
▁kucingmu	-7693
▁kulkasmu	-7694
▁kumisnya	-7695
▁kupaslah	-7696
▁kutulisi	-7697
▁laporkan	-7698
▁laptopku	-7699
▁ubi	-7700
▁ukr	-7701
cipta	-7702
lobal	-7703
soran	-7704
utube	-7705
zalea	-7706
▁orak	-7707
▁pitt	-7708
▁sapu	-7709
aslian	-7710
erumus	-7711
utrisi	-7712
▁cipta	-7713
▁fosil	-7714
▁heavy	-7715
▁larut	-7716
▁lazim	-7717
▁lotre	-7718
▁nanas	-7719
▁prose	-7720
▁sains	-7721
▁steik	-7722
▁tikar	-7723
▁virus	-7724
▁zombi	-7725
alonkan	-7726
▁apotek	-7727
▁azalea	-7728
▁dekade	-7729
▁distem	-7730
▁gawang	-7731
▁global	-7732
▁kaosmu	-7733
▁kapkek	-7734
▁ketoke	-7735
▁ngemil	-7736
▁olinya	-7737
▁partai	-7738
▁pelupa	-7739
▁reagan	-7740
▁salmon	-7741
▁segiat	-7742
▁spidol	-7743
▁thomas	-7744
awinanmu	-7745
▁aslinya	-7746
▁bergigi	-7747
▁bincang	-7748
▁biskuit	-7749
▁celsius	-7750
▁dibalut	-7751
▁dibawah	-7752
▁dicatat	-7753
▁kasetku	-7754
▁keramas	-7755
▁kerumah	-7756
▁kontrak	-7757
▁memilki	-7758
▁menenun	-7759
▁mineral	-7760
▁pandemi	-7761
▁penanak	-7762
▁satelit	-7763
▁sebagus	-7764
▁semahal	-7765
▁serapah	-7766
▁teroris	-7767
▁ukraina	-7768
▁youtube	-7769
endiannya	-7770
erensinya	-7771
▁beasiswa	-7772
▁bebicara	-7773
▁berjumpa	-7774
▁bersaing	-7775
▁berturut	-7776
▁elevator	-7777
▁keaslian	-7778
▁layaknya	-7779
▁lebarnya	-7780
▁lemparan	-7781
▁lokernya	-7782
▁maksudku	-7783
▁mandarin	-7784
▁mandikan	-7785
▁mandinya	-7786
▁mantelku	-7787
▁masaklah	-7788
▁maskermu	-7789
▁masukkan	-7790
▁melambat	-7791
▁melayang	-7792
▁memanjat	-7793
▁membahas	-7794
▁membakar	-7795
▁membetul	-7796
▁membidik	-7797
▁memburuk	-7798
▁memindai	-7799
▁kafe	-7800
▁kyiv	-7801
enburg	-7802
katimu	-7803
lywood	-7804
▁porsi	-7805
▁rajin	-7806
▁sunyi	-7807
▁tupai	-7808
ansisco	-7809
ertakmu	-7810
▁cedera	-7811
▁delima	-7812
▁denyut	-7813
▁doktor	-7814
▁esaiku	-7815
▁hambur	-7816
▁hektar	-7817
▁hilton	-7818
▁ibrani	-7819
▁komedi	-7820
▁kotamu	-7821
▁ladino	-7822
▁lenyap	-7823
▁loteng	-7824
▁muslim	-7825
▁ottawa	-7826
▁piagam	-7827
▁rendah	-7828
▁sepupu	-7829
▁stabil	-7830
▁vanila	-7831
▁violin	-7832
▁yakini	-7833
akjubkan	-7834
erbitkan	-7835
ibilitas	-7836
osongkan	-7837
▁apalagi	-7838
▁didepan	-7839
▁dudukan	-7840
▁efeknya	-7841
▁eratkan	-7842
▁fujinya	-7843
▁kekanak	-7844
▁khalifa	-7845
▁kuantum	-7846
▁lututmu	-7847
▁marilyn	-7848
▁molekul	-7849
▁pesepak	-7850
▁sewaktu	-7851
▁sisakan	-7852
▁spageti	-7853
▁tivinya	-7854
▁balonnya	-7855
▁benihnya	-7856
▁binaraga	-7857
▁gandakan	-7858
▁industri	-7859
▁kecakaan	-7860
▁kerjanya	-7861
▁kerudung	-7862
▁ketingal	-7863
▁labelnya	-7864
▁lidahnya	-7865
▁memotret	-7866
▁menabung	-7867
▁menakuti	-7868
▁menampar	-7869
▁mencabut	-7870
▁mencapai	-7871
▁menculik	-7872
▁mendadak	-7873
▁mendekat	-7874
▁mendesak	-7875
▁menemani	-7876
▁menepati	-7877
▁mengacuh	-7878
▁mengaduk	-7879
▁mengasah	-7880
▁mengasuh	-7881
▁mengecek	-7882
▁mengejar	-7883
▁mengelus	-7884
▁mengemas	-7885
▁mengeong	-7886
▁mengepel	-7887
▁mengepos	-7888
▁menggila	-7889
▁mengiler	-7890
▁mengisap	-7891
▁mengubur	-7892
▁mengukur	-7893
▁mengutil	-7894
▁meninjau	-7895
▁menjahit	-7896
▁menuruti	-7897
▁menyanyi	-7898
▁menyarap	-7899
▁antre	-7900
▁ilahi	-7901
▁skotl	-7902
▁brazil	-7903
▁contoh	-7904
▁edison	-7905
▁ongkos	-7906
▁protes	-7907
▁rentan	-7908
▁soccer	-7909
afalanmu	-7910
estigasi	-7911
sikiater	-7912
▁agustus	-7913
▁berotot	-7914
▁dikejar	-7915
▁fantasi	-7916
▁jabatan	-7917
▁kayakya	-7918
▁keledai	-7919
▁lompati	-7920
▁loncati	-7921
▁mabukan	-7922
▁nations	-7923
▁prinsip	-7924
▁problem	-7925
▁purnama	-7926
▁rangkum	-7927
▁sebotol	-7928
▁sekotak	-7929
▁sesibuk	-7930
▁spanyol	-7931
▁vermont	-7932
ebelahnya	-7933
▁akordion	-7934
▁awasilah	-7935
▁bantulah	-7936
▁ditonton	-7937
▁furnitur	-7938
▁kerajaan	-7939
▁kesialan	-7940
▁menyebar	-7941
▁menyetir	-7942
▁menyingg	-7943
▁menyusul	-7944
▁mertuaku	-7945
▁mesinnya	-7946
▁mestinya	-7947
▁mimpinya	-7948
▁minumnya	-7949
▁muhammad	-7950
▁mulailah	-7951
▁mulutnya	-7952
▁	-7953
a	-7954
n	-7955
i	-7956
e	-7957
k	-7958
u	-7959
m	-7960
t	-7961
r	-7962
s	-7963
g	-7964
d	-7965
.	-7966
l	-7967
b	-7968
p	-7969
h	-7970
o	-7971
y	-7972
j	-7973
?	-7974
c	-7975
w	-7976
,	-7977
f	-7978
!	-7979
v	-7980
0	-7981
2	-7982
1	-7983
3	-7984
z	-7985
8	-7986
5	-7987
6	-7988
9	-7989
:	-7990
4	-7991
x	-7992
7	-7993
;	-7994
q	-7995
